<unk>	0
<s>	0
</s>	0
▁t	-0
▁a	-1
he	-2
in	-3
re	-4
▁w	-5
▁s	-6
▁the	-7
▁o	-8
it	-9
er	-10
is	-11
▁b	-12
nd	-13
ha	-14
▁f	-15
▁I	-16
▁m	-17
▁c	-18
ou	-19
or	-20
▁p	-21
ing	-22
▁to	-23
on	-24
▁and	-25
es	-26
ll	-27
ed	-28
▁l	-29
▁d	-30
en	-31
as	-32
▁it	-33
at	-34
▁g	-35
▁of	-36
▁th	-37
▁in	-38
ar	-39
▁n	-40
an	-41
ve	-42
▁is	-43
▁re	-44
om	-45
le	-46
ic	-47
▁ha	-48
ut	-49
ot	-50
▁T	-51
oo	-52
▁e	-53
us	-54
▁on	-55
hat	-56
▁be	-57
▁for	-58
ly	-59
ver	-60
▁this	-61
▁y	-62
ct	-63
al	-64
gh	-65
et	-66
▁h	-67
ow	-68
▁st	-69
ad	-70
▁that	-71
▁you	-72
ld	-73
ion	-74
ook	-75
ay	-76
ith	-77
▁was	-78
id	-79
st	-80
▁with	-81
ro	-82
ke	-83
se	-84
ent	-85
all	-86
ac	-87
me	-88
▁my	-89
her	-90
▁The	-91
▁we	-92
ri	-93
ght	-94
▁A	-95
ur	-96
▁li	-97
▁an	-98
▁but	-99
▁have	-100
▁not	-101
ra	-102
ter	-103
ir	-104
▁as	-105
▁book	-106
▁S	-107
▁u	-108
▁are	-109
ce	-110
▁mo	-111
ould	-112
ch	-113
▁so	-114
ill	-115
very	-116
if	-117
▁he	-118
▁se	-119
ble	-120
im	-121
pp	-122
ust	-123
ally	-124
▁us	-125
reat	-126
▁wh	-127
▁W	-128
▁wor	-129
▁It	-130
▁ne	-131
▁M	-132
▁pro	-133
▁B	-134
▁do	-135
▁j	-136
▁ex	-137
▁C	-138
▁al	-139
▁lo	-140
▁com	-141
il	-142
his	-143
ul	-144
ect	-145
ood	-146
▁one	-147
ie	-148
▁or	-149
th	-150
▁me	-151
ge	-152
▁H	-153
out	-154
ers	-155
ice	-156
▁de	-157
qu	-158
▁read	-159
▁all	-160
▁This	-161
rom	-162
▁at	-163
ant	-164
ome	-165
one	-166
▁very	-167
▁sh	-168
▁like	-169
ack	-170
am	-171
▁can	-172
han	-173
▁great	-174
ure	-175
un	-176
ess	-177
..	-178
ol	-179
ain	-180
▁pl	-181
▁ab	-182
▁k	-183
▁out	-184
ist	-185
▁they	-186
el	-187
ast	-188
▁con	-189
▁G	-190
▁would	-191
▁from	-192
op	-193
▁D	-194
▁whe	-195
est	-196
um	-197
▁(	-198
ough	-199
▁get	-200
▁just	-201
▁good	-202
ive	-203
▁work	-204
▁up	-205
em	-206
art	-207
▁P	-208
ind	-209
ong	-210
ak	-211
▁"	-212
▁has	-213
ation	-214
▁L	-215
▁r	-216
ere	-217
ound	-218
▁more	-219
▁will	-220
▁ti	-221
and	-222
▁N	-223
▁had	-224
▁about	-225
▁fe	-226
▁them	-227
able	-228
▁v	-229
nt	-230
▁rec	-231
ies	-232
▁qu	-233
ther	-234
▁F	-235
ig	-236
▁int	-237
ear	-238
▁su	-239
▁en	-240
ame	-241
ort	-242
uct	-243
▁tr	-244
itt	-245
▁any	-246
▁am	-247
ate	-248
ven	-249
pe	-250
▁well	-251
▁O	-252
▁co	-253
▁cha	-254
ite	-255
ity	-256
▁some	-257
▁when	-258
▁no	-259
ory	-260
▁pr	-261
▁time	-262
▁E	-263
ag	-264
ck	-265
▁R	-266
ight	-267
ide	-268
▁what	-269
▁look	-270
ought	-271
▁other	-272
▁your	-273
▁if	-274
▁love	-275
▁her	-276
▁really	-277
▁than	-278
ine	-279
ap	-280
ake	-281
▁use	-282
ore	-283
▁bu	-284
duct	-285
ard	-286
▁did	-287
▁ad	-288
▁comp	-289
▁1	-290
▁who	-291
erf	-292
▁by	-293
ick	-294
▁go	-295
ved	-296
▁pre	-297
▁bec	-298
os	-299
ep	-300
▁these	-301
so	-302
aus	-303
▁product	-304
▁exp	-305
▁only	-306
uch	-307
▁his	-308
vie	-309
▁does	-310
...	-311
▁le	-312
▁too	-313
▁man	-314
▁kn	-315
ause	-316
oy	-317
▁much	-318
▁eas	-319
ous	-320
ab	-321
ich	-322
iz	-323
▁how	-324
ink	-325
are	-326
mend	-327
ays	-328
▁i	-329
▁sc	-330
ves	-331
pt	-332
ommend	-333
▁ar	-334
▁un	-335
▁want	-336
▁story	-337
own	-338
▁wr	-339
▁there	-340
▁J	-341
▁2	-342
▁cl	-343
fter	-344
irst	-345
▁-	-346
▁were	-347
▁she	-348
▁recommend	-349
ff	-350
▁because	-351
▁te	-352
ract	-353
ittle	-354
▁dis	-355
▁over	-356
hing	-357
▁every	-358
ue	-359
▁bet	-360
▁need	-361
ire	-362
▁little	-363
int	-364
▁ag	-365
▁could	-366
▁year	-367
age	-368
▁don	-369
our	-370
ond	-371
▁fa	-372
▁ke	-373
ment	-374
▁first	-375
▁been	-376
ip	-377
lf	-378
▁off	-379
imp	-380
▁which	-381
ase	-382
ud	-383
▁back	-384
ry	-385
▁pur	-386
!!	-387
▁tw	-388
ade	-389
ace	-390
az	-391
▁even	-392
▁also	-393
▁buy	-394
▁sp	-395
ss	-396
ving	-397
▁ch	-398
▁their	-399
ions	-400
cha	-401
ile	-402
ings	-403
▁perf	-404
od	-405
ose	-406
iff	-407
▁Y	-408
▁into	-409
other	-410
▁sm	-411
vel	-412
▁know	-413
▁K	-414
▁way	-415
▁think	-416
▁ser	-417
ach	-418
ass	-419
ality	-420
igh	-421
urn	-422
▁V	-423
▁after	-424
▁fl	-425
▁new	-426
▁bought	-427
▁thr	-428
The	-429
▁app	-430
▁sa	-431
ull	-432
te	-433
▁purcha	-434
▁got	-435
joy	-436
▁better	-437
▁easy	-438
ens	-439
▁diff	-440
▁put	-441
▁find	-442
ily	-443
▁price	-444
▁wat	-445
▁des	-446
ting	-447
▁po	-448
▁act	-449
ci	-450
ish	-451
▁see	-452
▁My	-453
▁play	-454
▁3	-455
▁charact	-456
▁ph	-457
pl	-458
▁bl	-459
▁make	-460
▁down	-461
▁enjoy	-462
orm	-463
akes	-464
▁long	-465
fe	-466
▁many	-467
view	-468
ict	-469
▁cont	-470
▁fit	-471
right	-472
ree	-473
▁end	-474
ult	-475
▁feel	-476
▁fun	-477
▁nice	-478
▁two	-479
▁now	-480
ans	-481
▁still	-482
▁pe	-483
▁part	-484
▁inst	-485
▁lot	-486
▁made	-487
▁set	-488
▁perfect	-489
▁old	-490
▁used	-491
rd	-492
▁best	-493
cc	-494
▁happ	-495
▁If	-496
og	-497
▁quality	-498
▁through	-499
ical	-500
▁aw	-501
omet	-502
oth	-503
▁most	-504
▁ro	-505
nder	-506
▁then	-507
eri	-508
▁They	-509
▁We	-510
▁ord	-511
▁its	-512
▁U	-513
▁again	-514
▁keep	-515
hed	-516
wn	-517
ks	-518
old	-519
▁hel	-520
▁review	-521
ft	-522
▁seem	-523
act	-524
ize	-525
▁books	-526
ever	-527
ps	-528
uth	-529
end	-530
les	-531
ated	-532
ord	-533
ail	-534
▁spe	-535
▁Am	-536
ty	-537
self	-538
▁works	-539
▁high	-540
▁cle	-541
ors	-542
ne	-543
thing	-544
ious	-545
▁che	-546
au	-547
ful	-548
per	-549
xt	-550
▁our	-551
▁years	-552
ild	-553
).	-554
vers	-555
ered	-556
▁case	-557
ance	-558
ob	-559
▁gu	-560
▁small	-561
▁sl	-562
▁reading	-563
▁life	-564
atter	-565
red	-566
▁game	-567
▁somet	-568
▁say	-569
ars	-570
▁tri	-571
▁differe	-572
ery	-573
fore	-574
▁hard	-575
we	-576
▁found	-577
ually	-578
▁br	-579
ople	-580
▁start	-581
imes	-582
blem	-583
▁hand	-584
▁few	-585
ert	-586
gin	-587
▁inc	-588
▁5	-589
▁should	-590
▁problem	-591
▁never	-592
▁didn	-593
▁imp	-594
▁light	-595
▁bit	-596
ary	-597
ub	-598
▁under	-599
mo	-600
▁gr	-601
ition	-602
ning	-603
▁right	-604
▁people	-605
ress	-606
ince	-607
ount	-608
ations	-609
▁show	-610
▁bo	-611
▁real	-612
00	-613
▁mus	-614
▁add	-615
▁He	-616
▁col	-617
▁looking	-618
▁But	-619
▁auth	-620
▁help	-621
▁mon	-622
▁movie	-623
ign	-624
▁try	-625
ise	-626
▁own	-627
ence	-628
erest	-629
▁gl	-630
▁before	-631
riend	-632
▁You	-633
▁characters	-634
▁sound	-635
▁res	-636
hen	-637
▁4	-638
li	-639
▁sha	-640
▁day	-641
ute	-642
▁In	-643
▁enough	-644
fin	-645
ug	-646
▁last	-647
ave	-648
ber	-649
sed	-650
ng	-651
▁expect	-652
▁another	-653
▁thought	-654
app	-655
▁while	-656
▁song	-657
▁interest	-658
ark	-659
▁same	-660
▁series	-661
▁thing	-662
▁using	-663
▁fo	-664
hes	-665
▁him	-666
▁Ch	-667
av	-668
ents	-669
▁different	-670
ool	-671
▁big	-672
▁doesn	-673
ason	-674
ating	-675
▁size	-676
aking	-677
▁str	-678
▁ins	-679
▁exce	-680
fort	-681
▁going	-682
ph	-683
azon	-684
get	-685
ways	-686
▁fin	-687
▁something	-688
▁St	-689
▁around	-690
▁worth	-691
ces	-692
▁take	-693
▁may	-694
bum	-695
iting	-696
▁Great	-697
ual	-698
▁pers	-699
▁without	-700
▁being	-701
ger	-702
ove	-703
▁makes	-704
▁car	-705
▁sec	-706
ather	-707
▁chan	-708
▁music	-709
▁author	-710
▁those	-711
▁char	-712
▁album	-713
less	-714
▁where	-715
rand	-716
▁op	-717
▁far	-718
▁phone	-719
oint	-720
▁dec	-721
▁There	-722
▁mat	-723
▁since	-724
oney	-725
▁friend	-726
▁And	-727
▁though	-728
▁sur	-729
tty	-730
▁So	-731
▁sure	-732
▁acc	-733
▁Al	-734
▁ever	-735
▁TH	-736
▁gi	-737
ipp	-738
ple	-739
read	-740
▁inf	-741
iv	-742
▁always	-743
▁give	-744
▁min	-745
▁ent	-746
▁wa	-747
ible	-748
▁wond	-749
▁month	-750
▁bel	-751
▁watch	-752
▁att	-753
▁loved	-754
▁ext	-755
▁fil	-756
be	-757
▁turn	-758
ures	-759
▁defin	-760
▁pretty	-761
▁times	-762
aught	-763
▁hold	-764
▁money	-765
▁rel	-766
▁list	-767
aut	-768
ER	-769
▁things	-770
▁fam	-771
▁&	-772
▁sho	-773
▁Re	-774
llent	-775
ics	-776
▁supp	-777
▁scre	-778
itely	-779
ott	-780
▁pict	-781
▁im	-782
▁person	-783
ked	-784
▁both	-785
astic	-786
▁came	-787
▁Amazon	-788
▁rece	-789
▁anyone	-790
▁purchased	-791
▁quick	-792
ased	-793
▁each	-794
ons	-795
ix	-796
▁happy	-797
▁Not	-798
▁come	-799
▁next	-800
itten	-801
▁wee	-802
▁item	-803
▁bad	-804
▁She	-805
▁batter	-806
▁ret	-807
erful	-808
up	-809
▁pack	-810
ably	-811
ower	-812
cri	-813
▁hop	-814
▁disapp	-815
▁$	-816
ia	-817
ny	-818
▁simp	-819
stand	-820
vice	-821
als	-822
pr	-823
▁child	-824
▁These	-825
ian	-826
ward	-827
▁fav	-828
▁Very	-829
▁looks	-830
▁such	-831
▁kind	-832
▁repl	-833
▁prot	-834
▁head	-835
....	-836
▁purchase	-837
▁As	-838
▁color	-839
ts	-840
▁order	-841
▁here	-842
▁must	-843
▁run	-844
▁tra	-845
llow	-846
▁sk	-847
▁top	-848
rist	-849
▁em	-850
▁cou	-851
▁comple	-852
▁disappoint	-853
▁less	-854
arly	-855
ock	-856
▁cr	-857
ertain	-858
▁wanted	-859
ately	-860
▁able	-861
▁ra	-862
▁det	-863
day	-864
▁ref	-865
▁lar	-866
▁beaut	-867
▁written	-868
▁wear	-869
▁cover	-870
lud	-871
▁favor	-872
▁lear	-873
▁getting	-874
▁actually	-875
▁definitely	-876
▁disc	-877
▁ple	-878
▁seems	-879
▁quite	-880
▁job	-881
ew	-882
ories	-883
▁full	-884
▁coll	-885
▁fact	-886
▁How	-887
ouse	-888
most	-889
▁war	-890
ren	-891
ib	-892
ection	-893
▁iss	-894
▁recei	-895
▁cons	-896
ative	-897
uff	-898
▁mod	-899
▁es	-900
iss	-901
▁fan	-902
▁enjoyed	-903
ues	-904
▁excellent	-905
▁open	-906
▁fine	-907
▁second	-908
▁kid	-909
▁amaz	-910
▁el	-911
▁cheap	-912
),	-913
▁world	-914
--	-915
▁ordered	-916
ier	-917
▁away	-918
bs	-919
▁dri	-920
▁'	-921
▁point	-922
▁tell	-923
ath	-924
aughter	-925
ift	-926
io	-927
▁box	-928
▁yet	-929
▁highly	-930
▁rem	-931
▁pa	-932
▁comfort	-933
ets	-934
▁ed	-935
▁vers	-936
ont	-937
▁clean	-938
▁descri	-939
▁short	-940
ial	-941
ram	-942
its	-943
▁days	-944
ner	-945
ages	-946
ense	-947
lain	-948
ged	-949
ee	-950
ction	-951
▁ori	-952
▁belie	-953
▁ty	-954
▁family	-955
▁cam	-956
▁pie	-957
▁sty	-958
!!!	-959
res	-960
the	-961
▁fr	-962
▁stand	-963
▁beautif	-964
▁tried	-965
▁inter	-966
veral	-967
▁Be	-968
▁gen	-969
▁Christ	-970
▁When	-971
ys	-972
▁everything	-973
▁dur	-974
▁several	-975
uck	-976
▁said	-977
nce	-978
▁includ	-979
▁6	-980
▁care	-981
▁film	-982
ife	-983
▁interesting	-984
ption	-985
peci	-986
▁reviews	-987
▁CD	-988
▁water	-989
▁For	-990
▁reason	-991
▁having	-992
▁reg	-993
▁novel	-994
vent	-995
▁loves	-996
▁install	-997
ced	-998
▁needed	-999
▁origin	-1000
▁pos	-1001
▁anything	-1002
▁Wh	-1003
▁home	-1004
▁done	-1005
▁understand	-1006
▁return	-1007
▁toget	-1008
▁together	-1009
ale	-1010
▁almost	-1011
▁wait	-1012
▁sol	-1013
king	-1014
ash	-1015
bo	-1016
▁others	-1017
▁bag	-1018
▁inform	-1019
▁sy	-1020
▁amazing	-1021
▁why	-1022
▁stars	-1023
ness	-1024
▁side	-1025
ten	-1026
▁experi	-1027
ead	-1028
IN	-1029
pecially	-1030
▁hist	-1031
▁place	-1032
ides	-1033
▁son	-1034
▁gift	-1035
▁wonderful	-1036
ised	-1037
ween	-1038
▁hum	-1039
led	-1040
▁once	-1041
▁character	-1042
▁easily	-1043
ruct	-1044
▁comes	-1045
▁months	-1046
▁fast	-1047
aw	-1048
pect	-1049
▁prov	-1050
▁screen	-1051
▁took	-1052
apt	-1053
▁class	-1054
ular	-1055
▁hour	-1056
▁eff	-1057
▁listen	-1058
ots	-1059
▁.	-1060
bably	-1061
▁ide	-1062
mer	-1063
ows	-1064
▁design	-1065
▁might	-1066
▁worked	-1067
▁bott	-1068
▁songs	-1069
▁favorite	-1070
oc	-1071
▁received	-1072
▁store	-1073
ters	-1074
not	-1075
▁between	-1076
▁let	-1077
▁sub	-1078
This	-1079
▁three	-1080
▁ind	-1081
▁unt	-1082
▁No	-1083
ided	-1084
▁battery	-1085
ully	-1086
▁picture	-1087
ell	-1088
▁free	-1089
▁complete	-1090
▁daughter	-1091
any	-1092
▁liked	-1093
▁writing	-1094
lic	-1095
though	-1096
▁exc	-1097
▁sw	-1098
ied	-1099
▁abs	-1100
▁However	-1101
▁bre	-1102
▁Love	-1103
▁creat	-1104
ang	-1105
vious	-1106
▁soft	-1107
era	-1108
▁wish	-1109
▁word	-1110
ates	-1111
ames	-1112
ically	-1113
▁ac	-1114
▁comfortable	-1115
ater	-1116
▁After	-1117
▁10	-1118
▁What	-1119
OT	-1120
esome	-1121
▁THE	-1122
▁learn	-1123
▁exact	-1124
▁won	-1125
▁begin	-1126
▁follow	-1127
▁call	-1128
ject	-1129
ready	-1130
urd	-1131
here	-1132
▁whole	-1133
▁until	-1134
▁conn	-1135
▁ear	-1136
▁beautiful	-1137
▁pres	-1138
gr	-1139
▁probably	-1140
ention	-1141
▁deal	-1142
▁started	-1143
hip	-1144
gg	-1145
▁friends	-1146
▁8	-1147
▁An	-1148
▁dra	-1149
▁already	-1150
▁couple	-1151
ature	-1152
▁disappointed	-1153
▁main	-1154
▁isn	-1155
▁especially	-1156
▁kids	-1157
▁arri	-1158
▁cut	-1159
▁perfectly	-1160
▁expected	-1161
▁art	-1162
▁tal	-1163
▁protect	-1164
▁nothing	-1165
ush	-1166
pped	-1167
ments	-1168
▁stra	-1169
EA	-1170
▁card	-1171
▁problems	-1172
▁met	-1173
▁hair	-1174
ensive	-1175
line	-1176
▁stories	-1177
▁av	-1178
ched	-1179
▁wom	-1180
cess	-1181
▁version	-1182
▁pick	-1183
▁room	-1184
▁strong	-1185
It	-1186
▁myself	-1187
elt	-1188
▁sing	-1189
▁trying	-1190
▁hope	-1191
▁replac	-1192
▁went	-1193
▁cor	-1194
▁De	-1195
▁detail	-1196
▁7	-1197
▁original	-1198
▁surpr	-1199
▁couldn	-1200
▁All	-1201
ging	-1202
▁fits	-1203
▁bro	-1204
▁true	-1205
▁Th	-1206
▁stud	-1207
raph	-1208
olute	-1209
ited	-1210
▁Good	-1211
▁wasn	-1212
▁young	-1213
▁night	-1214
▁else	-1215
ility	-1216
▁sn	-1217
▁large	-1218
▁Just	-1219
band	-1220
▁buying	-1221
man	-1222
▁shipp	-1223
mas	-1224
▁bas	-1225
▁quickly	-1226
▁plastic	-1227
▁stuff	-1228
ished	-1229
ized	-1230
ither	-1231
▁working	-1232
ody	-1233
▁That	-1234
▁ter	-1235
▁pain	-1236
▁left	-1237
ex	-1238
VE	-1239
▁gets	-1240
▁line	-1241
irl	-1242
▁super	-1243
ller	-1244
."	-1245
iter	-1246
▁inv	-1247
▁cost	-1248
▁per	-1249
ND	-1250
▁ago	-1251
ently	-1252
oice	-1253
▁past	-1254
ric	-1255
▁DV	-1256
iet	-1257
▁takes	-1258
ins	-1259
ider	-1260
ges	-1261
▁least	-1262
▁information	-1263
▁Than	-1264
ones	-1265
▁power	-1266
▁materi	-1267
".	-1268
lect	-1269
ost	-1270
▁cat	-1271
▁style	-1272
▁happen	-1273
ement	-1274
▁conc	-1275
▁someone	-1276
▁mind	-1277
ling	-1278
ike	-1279
▁ones	-1280
▁20	-1281
▁Wor	-1282
ret	-1283
▁gave	-1284
arch	-1285
icult	-1286
▁exactly	-1287
OR	-1288
▁making	-1289
▁fall	-1290
▁band	-1291
▁brand	-1292
▁track	-1293
▁Bl	-1294
▁DVD	-1295
▁rep	-1296
ines	-1297
▁awesome	-1298
▁et	-1299
▁dog	-1300
▁vide	-1301
▁rest	-1302
ax	-1303
▁simple	-1304
aster	-1305
▁heart	-1306
▁heav	-1307
▁difficult	-1308
usband	-1309
▁live	-1310
med	-1311
▁record	-1312
ON	-1313
du	-1314
LL	-1315
▁19	-1316
▁dire	-1317
ream	-1318
cial	-1319
▁val	-1320
els	-1321
▁One	-1322
ange	-1323
▁seen	-1324
ird	-1325
utes	-1326
▁believe	-1327
▁along	-1328
▁however	-1329
▁absolute	-1330
▁clear	-1331
eric	-1332
ches	-1333
▁felt	-1334
asy	-1335
light	-1336
▁plot	-1337
▁half	-1338
▁camera	-1339
ime	-1340
▁phot	-1341
▁husband	-1342
▁trans	-1343
lo	-1344
velop	-1345
▁contin	-1346
▁reader	-1347
▁Also	-1348
▁ev	-1349
▁house	-1350
▁etc	-1351
▁unit	-1352
ared	-1353
▁conf	-1354
▁:	-1355
ern	-1356
chool	-1357
▁children	-1358
▁plan	-1359
▁hours	-1360
reme	-1361
osed	-1362
▁cour	-1363
stem	-1364
▁longer	-1365
▁dr	-1366
▁num	-1367
ouch	-1368
▁port	-1369
▁week	-1370
▁arrived	-1371
▁cool	-1372
▁mem	-1373
ional	-1374
▁perform	-1375
▁tast	-1376
▁complain	-1377
▁contro	-1378
▁US	-1379
▁everyone	-1380
ES	-1381
▁fig	-1382
▁stick	-1383
ross	-1384
▁pay	-1385
ired	-1386
▁cur	-1387
▁extra	-1388
▁level	-1389
▁form	-1390
▁sle	-1391
ices	-1392
▁history	-1393
▁--	-1394
▁comput	-1395
▁Br	-1396
OU	-1397
▁Un	-1398
▁minutes	-1399
▁goes	-1400
▁wrong	-1401
gan	-1402
iew	-1403
rill	-1404
▁material	-1405
▁piece	-1406
▁ey	-1407
dd	-1408
IS	-1409
olog	-1410
▁weight	-1411
▁hear	-1412
▁med	-1413
▁experience	-1414
ton	-1415
arent	-1416
▁needs	-1417
que	-1418
▁black	-1419
▁forward	-1420
▁gives	-1421
▁comm	-1422
ote	-1423
▁scen	-1424
▁cop	-1425
cept	-1426
ume	-1427
ists	-1428
ED	-1429
▁Christmas	-1430
iness	-1431
sing	-1432
com	-1433
▁9	-1434
▁during	-1435
▁pair	-1436
▁rele	-1437
▁system	-1438
▁issues	-1439
▁connect	-1440
▁cond	-1441
cy	-1442
▁instead	-1443
▁cute	-1444
▁loc	-1445
▁support	-1446
▁pass	-1447
▁change	-1448
aper	-1449
▁cra	-1450
ump	-1451
▁page	-1452
▁rather	-1453
▁playing	-1454
▁fant	-1455
ific	-1456
▁saw	-1457
▁var	-1458
▁view	-1459
▁sit	-1460
▁cook	-1461
▁ob	-1462
ient	-1463
▁glad	-1464
▁either	-1465
uly	-1466
▁prog	-1467
just	-1468
▁recommended	-1469
side	-1470
▁absolutely	-1471
",	-1472
▁stay	-1473
▁z	-1474
▁sat	-1475
▁On	-1476
▁girl	-1477
▁key	-1478
▁Can	-1479
▁mag	-1480
▁mom	-1481
▁certain	-1482
▁break	-1483
▁doing	-1484
▁star	-1485
kes	-1486
▁miss	-1487
▁often	-1488
where	-1489
ank	-1490
way	-1491
▁develop	-1492
▁import	-1493
ware	-1494
but	-1495
▁Se	-1496
▁grand	-1497
▁iP	-1498
▁hot	-1499
ident	-1500
▁weeks	-1501
▁inside	-1502
▁speak	-1503
▁Americ	-1504
itive	-1505
antly	-1506
itch	-1507
▁Ex	-1508
▁table	-1509
▁itself	-1510
mell	-1511
ustr	-1512
▁requ	-1513
wh	-1514
▁course	-1515
ted	-1516
▁shoes	-1517
▁low	-1518
▁pages	-1519
▁products	-1520
▁close	-1521
▁heavy	-1522
▁const	-1523
aby	-1524
▁pol	-1525
▁Kind	-1526
▁hor	-1527
▁rom	-1528
book	-1529
▁remo	-1530
▁haven	-1531
und	-1532
▁quest	-1533
▁pleased	-1534
tern	-1535
▁tot	-1536
▁smo	-1537
irt	-1538
ah	-1539
iced	-1540
▁effect	-1541
to	-1542
▁computer	-1543
▁TV	-1544
▁Well	-1545
arr	-1546
▁instruct	-1547
AT	-1548
▁entertain	-1549
▁direct	-1550
▁tech	-1551
▁guess	-1552
▁,	-1553
▁Pro	-1554
▁NOT	-1555
▁extreme	-1556
▁kept	-1557
ky	-1558
br	-1559
▁ri	-1560
▁gener	-1561
▁pull	-1562
▁type	-1563
verall	-1564
board	-1565
▁God	-1566
▁Now	-1567
▁wife	-1568
▁move	-1569
▁swe	-1570
cks	-1571
▁decided	-1572
▁school	-1573
▁food	-1574
▁heard	-1575
▁shows	-1576
▁smell	-1577
▁chap	-1578
▁Jo	-1579
▁skin	-1580
▁completely	-1581
▁ok	-1582
▁dro	-1583
▁entire	-1584
▁With	-1585
ING	-1586
ef	-1587
idd	-1588
ustom	-1589
▁Do	-1590
▁tool	-1591
ilar	-1592
▁bus	-1593
▁video	-1594
!!!!	-1595
▁exam	-1596
▁dry	-1597
▁soon	-1598
▁wal	-1599
▁tight	-1600
▁LO	-1601
bed	-1602
▁games	-1603
▁bed	-1604
▁collection	-1605
▁boy	-1606
son	-1607
▁shipping	-1608
▁idea	-1609
▁present	-1610
▁At	-1611
oose	-1612
▁figure	-1613
▁mess	-1614
▁partic	-1615
lling	-1616
isf	-1617
▁IT	-1618
▁Pl	-1619
ities	-1620
▁fill	-1621
▁count	-1622
▁expensive	-1623
▁gre	-1624
wor	-1625
▁keeps	-1626
▁plug	-1627
▁sturd	-1628
▁vis	-1629
ism	-1630
▁impress	-1631
▁pop	-1632
part	-1633
▁action	-1634
▁words	-1635
▁wouldn	-1636
oud	-1637
▁avail	-1638
▁text	-1639
▁truly	-1640
orn	-1641
▁given	-1642
▁mark	-1643
▁cannot	-1644
▁pri	-1645
▁pictures	-1646
ats	-1647
▁issue	-1648
▁looked	-1649
▁ass	-1650
▁says	-1651
▁dist	-1652
ering	-1653
▁pract	-1654
▁poss	-1655
▁lead	-1656
▁Kindle	-1657
▁face	-1658
▁fair	-1659
ffee	-1660
▁service	-1661
▁previous	-1662
like	-1663
▁addition	-1664
▁mar	-1665
▁air	-1666
▁cable	-1667
co	-1668
▁hands	-1669
▁ste	-1670
▁stop	-1671
▁lost	-1672
▁company	-1673
vert	-1674
▁dark	-1675
▁result	-1676
mber	-1677
▁Don	-1678
▁sex	-1679
aces	-1680
▁consider	-1681
▁four	-1682
▁charge	-1683
▁touch	-1684
fer	-1685
▁myst	-1686
att	-1687
▁di	-1688
▁within	-1689
ray	-1690
▁later	-1691
▁prof	-1692
▁sent	-1693
▁check	-1694
▁ve	-1695
▁today	-1696
▁extremely	-1697
vies	-1698
alth	-1699
▁front	-1700
▁mix	-1701
▁simply	-1702
▁hon	-1703
▁typ	-1704
▁finally	-1705
▁sturdy	-1706
▁sim	-1707
ms	-1708
▁mean	-1709
▁colors	-1710
▁available	-1711
ites	-1712
▁rese	-1713
▁sugg	-1714
▁wall	-1715
▁suggest	-1716
▁carry	-1717
sy	-1718
▁prom	-1719
▁parts	-1720
▁print	-1721
har	-1722
▁test	-1723
▁funny	-1724
▁custom	-1725
▁vol	-1726
▁Every	-1727
AS	-1728
▁fut	-1729
▁device	-1730
AN	-1731
▁Sh	-1732
ouble	-1733
amp	-1734
ney	-1735
▁deep	-1736
air	-1737
▁taking	-1738
ried	-1739
▁eng	-1740
▁uni	-1741
▁movies	-1742
▁feels	-1743
▁Cl	-1744
aging	-1745
▁coffee	-1746
▁lau	-1747
▁told	-1748
▁kit	-1749
ming	-1750
▁pow	-1751
▁satisf	-1752
▁sign	-1753
▁control	-1754
aged	-1755
▁Will	-1756
▁contain	-1757
▁maybe	-1758
▁sometimes	-1759
inter	-1760
▁travel	-1761
▁bottom	-1762
If	-1763
▁slow	-1764
atur	-1765
▁matter	-1766
10	-1767
▁spend	-1768
▁baby	-1769
▁build	-1770
▁season	-1771
uc	-1772
▁techn	-1773
load	-1774
ined	-1775
▁poor	-1776
iction	-1777
ung	-1778
▁To	-1779
▁white	-1780
▁replacement	-1781
▁ending	-1782
▁feet	-1783
iny	-1784
▁appear	-1785
itting	-1786
▁norm	-1787
mb	-1788
▁personal	-1789
▁ill	-1790
▁Even	-1791
▁mach	-1792
▁program	-1793
owing	-1794
▁AND	-1795
ilt	-1796
▁amount	-1797
pping	-1798
▁While	-1799
▁non	-1800
▁future	-1801
▁Ar	-1802
▁become	-1803
▁Some	-1804
oss	-1805
ying	-1806
▁thinking	-1807
uge	-1808
▁cap	-1809
▁pub	-1810
▁write	-1811
IT	-1812
▁mount	-1813
rect	-1814
▁hook	-1815
▁imag	-1816
▁tit	-1817
▁seemed	-1818
▁paper	-1819
▁High	-1820
▁sense	-1821
▁important	-1822
atch	-1823
▁thick	-1824
▁adjust	-1825
na	-1826
▁solid	-1827
▁value	-1828
erg	-1829
▁12	-1830
▁relations	-1831
▁coming	-1832
▁bright	-1833
llen	-1834
▁ep	-1835
▁lots	-1836
▁Com	-1837
▁draw	-1838
▁slight	-1839
▁usually	-1840
▁voice	-1841
ron	-1842
▁mention	-1843
mp	-1844
▁mis	-1845
▁TO	-1846
▁pock	-1847
▁dep	-1848
▁Would	-1849
ken	-1850
unately	-1851
▁finish	-1852
▁watching	-1853
ience	-1854
▁interested	-1855
my	-1856
ution	-1857
▁fantastic	-1858
ane	-1859
▁red	-1860
ror	-1861
▁wind	-1862
▁lea	-1863
play	-1864
▁condition	-1865
▁batteries	-1866
▁cent	-1867
fully	-1868
▁mother	-1869
land	-1870
▁thin	-1871
oor	-1872
ases	-1873
▁aud	-1874
▁bul	-1875
▁yourself	-1876
▁smaller	-1877
▁relationship	-1878
▁Sp	-1879
▁Its	-1880
medi	-1881
▁knew	-1882
aptop	-1883
AR	-1884
▁reme	-1885
▁overall	-1886
▁deli	-1887
▁appro	-1888
rent	-1889
▁wire	-1890
▁copy	-1891
▁smooth	-1892
▁beginning	-1893
▁shar	-1894
▁honest	-1895
rible	-1896
▁replace	-1897
▁waste	-1898
▁leave	-1899
▁easier	-1900
aced	-1901
▁due	-1902
▁played	-1903
▁LOVE	-1904
▁huge	-1905
aj	-1906
▁woman	-1907
▁step	-1908
ler	-1909
lves	-1910
▁impro	-1911
▁sus	-1912
▁running	-1913
▁instructions	-1914
▁mine	-1915
▁bar	-1916
▁opin	-1917
▁emot	-1918
▁drive	-1919
wise	-1920
eng	-1921
▁name	-1922
▁pieces	-1923
▁handle	-1924
lish	-1925
▁gri	-1926
hn	-1927
▁pad	-1928
ipes	-1929
▁although	-1930
▁space	-1931
reci	-1932
▁taste	-1933
▁single	-1934
▁press	-1935
▁lives	-1936
▁sum	-1937
cus	-1938
atures	-1939
▁men	-1940
ugg	-1941
ape	-1942
▁self	-1943
EN	-1944
▁rock	-1945
ator	-1946
▁Other	-1947
▁sleep	-1948
▁laptop	-1949
▁warm	-1950
▁business	-1951
zz	-1952
▁Le	-1953
▁kill	-1954
▁number	-1955
ony	-1956
▁area	-1957
▁foot	-1958
▁useful	-1959
▁200	-1960
▁Tr	-1961
istic	-1962
by	-1963
net	-1964
ants	-1965
▁included	-1966
▁helpful	-1967
▁cord	-1968
▁women	-1969
▁process	-1970
ored	-1971
▁glass	-1972
▁post	-1973
oring	-1974
▁Thank	-1975
▁mult	-1976
ograph	-1977
ination	-1978
▁special	-1979
▁hol	-1980
▁explain	-1981
▁body	-1982
▁aff	-1983
ining	-1984
▁similar	-1985
▁teac	-1986
OM	-1987
▁access	-1988
▁sounds	-1989
▁wants	-1990
▁surprised	-1991
▁scr	-1992
▁larger	-1993
ives	-1994
▁treat	-1995
▁insp	-1996
▁helps	-1997
▁enc	-1998
▁model	-1999
▁intro	-2000
▁five	-2001
unch	-2002
ium	-2003
▁appreci	-2004
▁online	-2005
▁Mr	-2006
▁based	-2007
aken	-2008
▁aut	-2009
▁rub	-2010
▁feature	-2011
▁occ	-2012
ister	-2013
▁lack	-2014
50	-2015
▁romance	-2016
▁challen	-2017
▁:)	-2018
▁cd	-2019
ams	-2020
▁ball	-2021
▁pleas	-2022
ips	-2023
▁totally	-2024
oll	-2025
▁par	-2026
▁ann	-2027
▁30	-2028
for	-2029
▁screw	-2030
▁machine	-2031
▁dev	-2032
de	-2033
▁ele	-2034
▁toy	-2035
▁difference	-2036
▁parent	-2037
▁early	-2038
enty	-2039
▁hit	-2040
oup	-2041
▁doll	-2042
ising	-2043
▁leg	-2044
▁advert	-2045
▁pot	-2046
what	-2047
▁metal	-2048
▁player	-2049
▁uses	-2050
fortunately	-2051
▁plus	-2052
▁apart	-2053
▁er	-2054
▁fail	-2055
▁health	-2056
▁age	-2057
▁Easy	-2058
▁serious	-2059
▁correct	-2060
sw	-2061
▁send	-2062
▁His	-2063
▁immedi	-2064
▁feeling	-2065
▁fans	-2066
ational	-2067
room	-2068
▁broke	-2069
▁mot	-2070
let	-2071
▁expl	-2072
▁sens	-2073
▁mor	-2074
▁human	-2075
ccess	-2076
▁Her	-2077
par	-2078
oub	-2079
▁New	-2080
unk	-2081
▁ir	-2082
ield	-2083
▁comb	-2084
▁fix	-2085
▁download	-2086
ole	-2087
▁May	-2088
▁proper	-2089
ptions	-2090
▁turned	-2091
ology	-2092
▁fab	-2093
.5	-2094
▁hang	-2095
In	-2096
▁hero	-2097
▁spec	-2098
▁bra	-2099
▁older	-2100
▁pen	-2101
▁entertaining	-2102
▁features	-2103
▁paid	-2104
▁giving	-2105
▁package	-2106
▁classic	-2107
▁dam	-2108
,"	-2109
▁certainly	-2110
atic	-2111
▁fore	-2112
▁guy	-2113
▁seller	-2114
▁Overall	-2115
▁capt	-2116
.)	-2117
▁items	-2118
▁experien	-2119
▁regular	-2120
▁def	-2121
ital	-2122
▁remember	-2123
▁da	-2124
▁local	-2125
▁Mar	-2126
▁sad	-2127
iddle	-2128
▁John	-2129
▁fra	-2130
▁straight	-2131
▁opinion	-2132
▁Is	-2133
UT	-2134
▁100	-2135
▁attention	-2136
▁THIS	-2137
uy	-2138
ances	-2139
▁function	-2140
umb	-2141
▁charger	-2142
▁finished	-2143
▁durable	-2144
▁outside	-2145
▁description	-2146
▁incred	-2147
▁bring	-2148
▁adult	-2149
▁shoe	-2150
▁adm	-2151
▁mil	-2152
▁...	-2153
sh	-2154
▁elect	-2155
▁American	-2156
ina	-2157
no	-2158
▁humor	-2159
ivid	-2160
ured	-2161
ster	-2162
zy	-2163
haps	-2164
▁called	-2165
▁beh	-2166
▁tem	-2167
▁resp	-2168
ST	-2169
rap	-2170
▁Then	-2171
▁Ke	-2172
▁sweet	-2173
▁button	-2174
▁against	-2175
▁Thanks	-2176
▁subject	-2177
▁volume	-2178
▁Although	-2179
▁Ne	-2180
▁trip	-2181
▁jour	-2182
▁insight	-2183
work	-2184
▁rad	-2185
ength	-2186
itar	-2187
▁Sc	-2188
▁equ	-2189
▁fre	-2190
▁unique	-2191
▁adv	-2192
ajor	-2193
▁research	-2194
▁standard	-2195
▁Works	-2196
▁nicely	-2197
IC	-2198
▁supposed	-2199
▁IS	-2200
▁setting	-2201
lim	-2202
inc	-2203
irth	-2204
▁15	-2205
▁Fr	-2206
▁accur	-2207
▁Highly	-2208
▁focus	-2209
▁answ	-2210
over	-2211
▁recipes	-2212
selves	-2213
▁bottle	-2214
uri	-2215
▁ended	-2216
▁title	-2217
▁across	-2218
▁First	-2219
▁Bought	-2220
▁flav	-2221
20	-2222
▁enjoyable	-2223
▁1/	-2224
▁holds	-2225
▁laugh	-2226
▁chapter	-2227
ument	-2228
uss	-2229
▁mystery	-2230
▁stre	-2231
▁ble	-2232
▁throughout	-2233
▁gra	-2234
back	-2235
rew	-2236
▁immediately	-2237
▁beat	-2238
▁save	-2239
▁allow	-2240
▁histor	-2241
cle	-2242
▁liter	-2243
pend	-2244
▁behind	-2245
▁HD	-2246
▁sort	-2247
▁dig	-2248
ills	-2249
▁success	-2250
▁purp	-2251
lus	-2252
▁likes	-2253
▁current	-2254
yr	-2255
▁eyes	-2256
▁described	-2257
ERY	-2258
▁keyboard	-2259
sc	-2260
OO	-2261
ises	-2262
▁lay	-2263
▁organ	-2264
▁happened	-2265
▁Eng	-2266
▁impressed	-2267
▁provides	-2268
iding	-2269
isod	-2270
resh	-2271
▁scenes	-2272
▁Look	-2273
OW	-2274
lt	-2275
▁readers	-2276
▁turns	-2277
▁length	-2278
rant	-2279
▁upd	-2280
▁loud	-2281
▁blue	-2282
▁narr	-2283
▁profess	-2284
ET	-2285
▁cup	-2286
▁seat	-2287
erc	-2288
asc	-2289
▁major	-2290
▁ON	-2291
My	-2292
▁dress	-2293
▁advent	-2294
▁vac	-2295
ued	-2296
▁decent	-2297
▁aren	-2298
▁refere	-2299
con	-2300
phone	-2301
▁helped	-2302
▁living	-2303
che	-2304
▁taken	-2305
▁produ	-2306
eriod	-2307
▁market	-2308
phones	-2309
ze	-2310
▁continue	-2311
▁customer	-2312
atural	-2313
▁Nice	-2314
▁Exce	-2315
▁annoy	-2316
▁built	-2317
▁clos	-2318
▁Me	-2319
▁putting	-2320
▁writer	-2321
▁covers	-2322
▁daily	-2323
which	-2324
▁slightly	-2325
▁$1	-2326
▁situ	-2327
▁Car	-2328
▁recently	-2329
▁results	-2330
▁chance	-2331
▁graph	-2332
▁sil	-2333
ground	-2334
▁broken	-2335
▁sto	-2336
▁sharp	-2337
ned	-2338
▁cal	-2339
▁episod	-2340
ables	-2341
▁added	-2342
▁means	-2343
▁invest	-2344
▁search	-2345
ibly	-2346
▁drink	-2347
mon	-2348
angu	-2349
▁excited	-2350
▁spent	-2351
▁door	-2352
▁USB	-2353
▁learning	-2354
more	-2355
▁lab	-2356
▁anim	-2357
ision	-2358
LY	-2359
▁cart	-2360
set	-2361
▁oil	-2362
▁including	-2363
▁Mic	-2364
▁obvious	-2365
▁father	-2366
▁project	-2367
▁wearing	-2368
▁fing	-2369
▁remind	-2370
0'	-2371
▁ant	-2372
ding	-2373
oof	-2374
▁performance	-2375
vable	-2376
▁ways	-2377
▁flat	-2378
face	-2379
▁third	-2380
▁group	-2381
ring	-2382
▁neg	-2383
▁period	-2384
▁bigger	-2385
▁speed	-2386
RE	-2387
ec	-2388
▁fire	-2389
ularly	-2390
▁notice	-2391
▁wide	-2392
▁lens	-2393
▁pocket	-2394
▁range	-2395
▁effort	-2396
▁listening	-2397
▁satisfied	-2398
irit	-2399
▁Pr	-2400
▁opp	-2401
chen	-2402
.....	-2403
▁ideas	-2404
▁sal	-2405
ulous	-2406
▁invol	-2407
▁birth	-2408
▁pu	-2409
▁prefer	-2410
▁country	-2411
bers	-2412
▁cold	-2413
▁Any	-2414
▁guide	-2415
▁Lo	-2416
▁switch	-2417
▁fairly	-2418
ability	-2419
▁loose	-2420
▁cheaper	-2421
▁mic	-2422
▁wood	-2423
▁hig	-2424
▁software	-2425
rig	-2426
▁choice	-2427
lex	-2428
▁guitar	-2429
ls	-2430
ley	-2431
cing	-2432
▁hoping	-2433
▁possible	-2434
▁pan	-2435
ope	-2436
▁En	-2437
erm	-2438
▁oper	-2439
▁middle	-2440
▁gone	-2441
▁Like	-2442
▁questions	-2443
▁tre	-2444
▁authors	-2445
▁del	-2446
▁noticed	-2447
hone	-2448
▁base	-2449
▁Ad	-2450
▁kindle	-2451
▁details	-2452
▁Was	-2453
▁cast	-2454
aim	-2455
itor	-2456
▁basic	-2457
▁famil	-2458
eth	-2459
ison	-2460
▁brother	-2461
erfect	-2462
▁guys	-2463
▁tracks	-2464
▁strugg	-2465
▁becom	-2466
ians	-2467
▁fight	-2468
▁installed	-2469
tend	-2470
outh	-2471
▁concept	-2472
▁langu	-2473
▁missing	-2474
▁butt	-2475
▁Excellent	-2476
▁alone	-2477
time	-2478
▁waiting	-2479
▁near	-2480
▁remove	-2481
empt	-2482
uf	-2483
rif	-2484
▁eye	-2485
ik	-2486
▁plenty	-2487
▁various	-2488
▁la	-2489
hy	-2490
urt	-2491
▁trouble	-2492
▁seeing	-2493
▁release	-2494
▁ready	-2495
▁known	-2496
▁normal	-2497
▁shape	-2498
▁susp	-2499
use	-2500
▁note	-2501
aly	-2502
ades	-2503
▁cards	-2504
▁learned	-2505
▁moving	-2506
head	-2507
▁advertised	-2508
▁twice	-2509
▁fresh	-2510
mm	-2511
ential	-2512
▁burn	-2513
▁require	-2514
▁har	-2515
LE	-2516
▁photos	-2517
▁Dr	-2518
▁Su	-2519
▁pat	-2520
▁contact	-2521
ns	-2522
▁OF	-2523
▁match	-2524
▁ring	-2525
▁somewhat	-2526
▁flaw	-2527
▁IN	-2528
ading	-2529
▁event	-2530
▁actual	-2531
▁tun	-2532
▁illustr	-2533
▁voc	-2534
▁Of	-2535
ains	-2536
▁amazon	-2537
▁knows	-2538
▁sold	-2539
▁except	-2540
pper	-2541
go	-2542
▁lim	-2543
▁ben	-2544
vi	-2545
▁ang	-2546
ses	-2547
bb	-2548
▁Con	-2549
▁dont	-2550
▁compared	-2551
▁parents	-2552
min	-2553
▁example	-2554
▁purchasing	-2555
▁expecting	-2556
EC	-2557
▁themselves	-2558
▁mist	-2559
▁wanting	-2560
ource	-2561
ube	-2562
orough	-2563
▁Only	-2564
▁complaint	-2565
▁Ha	-2566
▁fell	-2567
▁multip	-2568
▁stri	-2569
▁places	-2570
ries	-2571
▁War	-2572
▁particular	-2573
▁cult	-2574
▁held	-2575
▁construct	-2576
ury	-2577
▁master	-2578
▁Or	-2579
▁App	-2580
ishing	-2581
row	-2582
body	-2583
itions	-2584
2.	-2585
▁Once	-2586
▁board	-2587
▁Fl	-2588
▁saying	-2589
▁Ste	-2590
▁tend	-2591
▁doub	-2592
▁death	-2593
iar	-2594
▁ess	-2595
▁leather	-2596
▁himself	-2597
ety	-2598
▁fiction	-2599
ppy	-2600
▁radio	-2601
ached	-2602
AY	-2603
▁eat	-2604
▁YOU	-2605
▁suff	-2606
▁happens	-2607
▁background	-2608
▁concern	-2609
▁lights	-2610
izing	-2611
▁edge	-2612
ledge	-2613
▁gar	-2614
▁squ	-2615
▁modern	-2616
▁unless	-2617
▁attempt	-2618
▁powerful	-2619
▁summer	-2620
▁changed	-2621
▁leaves	-2622
▁language	-2623
▁asse	-2624
ufact	-2625
▁dead	-2626
▁sett	-2627
aker	-2628
▁rubber	-2629
▁flash	-2630
▁returned	-2631
▁clearly	-2632
▁above	-2633
▁account	-2634
▁luck	-2635
▁remote	-2636
▁adap	-2637
▁brought	-2638
▁kitchen	-2639
▁purpose	-2640
ially	-2641
▁necess	-2642
izes	-2643
▁morning	-2644
▁sequ	-2645
iety	-2646
▁tablet	-2647
▁polit	-2648
▁Really	-2649
▁rating	-2650
REA	-2651
▁provide	-2652
▁50	-2653
▁stopped	-2654
▁safe	-2655
cl	-2656
▁opened	-2657
yond	-2658
▁bi	-2659
▁protection	-2660
▁Yes	-2661
▁walk	-2662
▁Since	-2663
▁Most	-2664
oid	-2665
▁keeping	-2666
▁HA	-2667
▁!	-2668
wards	-2669
▁late	-2670
▁improve	-2671
▁mouse	-2672
iring	-2673
▁display	-2674
▁yes	-2675
▁Rob	-2676
▁headphones	-2677
▁points	-2678
▁hate	-2679
▁albums	-2680
▁floor	-2681
oul	-2682
▁thorough	-2683
▁stores	-2684
▁heat	-2685
▁Book	-2686
▁roll	-2687
ening	-2688
yn	-2689
▁accurate	-2690
▁collect	-2691
aps	-2692
▁webs	-2693
▁Ph	-2694
▁attract	-2695
▁publ	-2696
▁bal	-2697
▁talent	-2698
▁18	-2699
pite	-2700
▁cases	-2701
▁Maybe	-2702
▁journey	-2703
▁cause	-2704
▁historical	-2705
por	-2706
As	-2707
▁Have	-2708
uring	-2709
ples	-2710
▁fur	-2711
▁realize	-2712
▁Cha	-2713
▁starts	-2714
tr	-2715
▁ask	-2716
▁annoying	-2717
reen	-2718
acy	-2719
▁boring	-2720
▁201	-2721
AC	-2722
▁meet	-2723
▁trad	-2724
▁dram	-2725
▁flavor	-2726
▁spirit	-2727
▁teen	-2728
▁understanding	-2729
▁ordering	-2730
finitely	-2731
▁appreciate	-2732
▁exerc	-2733
So	-2734
▁novels	-2735
come	-2736
▁lock	-2737
▁nearly	-2738
▁load	-2739
▁everyday	-2740
▁apply	-2741
▁knife	-2742
▁crit	-2743
▁sun	-2744
▁finding	-2745
▁tale	-2746
▁sister	-2747
▁ability	-2748
rit	-2749
▁events	-2750
▁encou	-2751
ears	-2752
▁separ	-2753
▁manufact	-2754
▁shipped	-2755
▁gotten	-2756
▁frustr	-2757
▁dial	-2758
▁neck	-2759
▁sell	-2760
IG	-2761
▁lyr	-2762
pective	-2763
▁Har	-2764
ners	-2765
▁allows	-2766
orge	-2767
There	-2768
▁caus	-2769
▁comment	-2770
▁crack	-2771
lier	-2772
▁Man	-2773
▁ST	-2774
rid	-2775
▁cir	-2776
▁twist	-2777
put	-2778
▁grow	-2779
▁tells	-2780
▁stock	-2781
sp	-2782
ounds	-2783
▁Sha	-2784
▁From	-2785
▁win	-2786
▁fold	-2787
▁fasc	-2788
inating	-2789
▁Inst	-2790
▁complim	-2791
▁spo	-2792
bing	-2793
▁starting	-2794
▁boots	-2795
▁wash	-2796
eal	-2797
orry	-2798
▁delivery	-2799
▁became	-2800
-1	-2801
▁question	-2802
▁tea	-2803
rilli	-2804
▁mostly	-2805
▁libr	-2806
form	-2807
▁town	-2808
▁packaging	-2809
▁shirt	-2810
▁rid	-2811
▁fully	-2812
▁iPad	-2813
▁opening	-2814
▁Che	-2815
▁intrig	-2816
▁connection	-2817
▁date	-2818
▁Mac	-2819
▁noise	-2820
▁delight	-2821
▁filled	-2822
▁suspense	-2823
ask	-2824
▁truth	-2825
ox	-2826
▁iPhone	-2827
▁net	-2828
▁owned	-2829
▁option	-2830
▁picked	-2831
verage	-2832
used	-2833
▁Tw	-2834
▁audio	-2835
▁Unfortunately	-2836
ography	-2837
ru	-2838
▁Mc	-2839
off	-2840
▁positive	-2841
▁jo	-2842
▁general	-2843
▁handy	-2844
▁doc	-2845
▁dream	-2846
▁aspect	-2847
box	-2848
▁ends	-2849
▁okay	-2850
▁Christian	-2851
▁fabric	-2852
▁gun	-2853
▁bare	-2854
▁individ	-2855
▁filter	-2856
▁plays	-2857
▁thank	-2858
??	-2859
▁scene	-2860
▁natural	-2861
▁est	-2862
▁content	-2863
▁multiple	-2864
▁rate	-2865
▁designed	-2866
▁protector	-2867
▁birthday	-2868
▁knowledge	-2869
▁Perfect	-2870
ems	-2871
▁commun	-2872
erv	-2873
▁higher	-2874
▁green	-2875
▁jack	-2876
▁buttons	-2877
▁Dis	-2878
▁watched	-2879
ctions	-2880
▁catch	-2881
TH	-2882
▁stuck	-2883
ency	-2884
chan	-2885
nter	-2886
▁whether	-2887
VER	-2888
▁cri	-2889
▁strap	-2890
▁dogs	-2891
ients	-2892
▁accom	-2893
▁VERY	-2894
▁lines	-2895
ball	-2896
▁chapters	-2897
▁occas	-2898
▁speakers	-2899
▁sets	-2900
ipe	-2901
acing	-2902
▁effective	-2903
▁thrill	-2904
▁advice	-2905
ude	-2906
▁tape	-2907
▁agree	-2908
how	-2909
▁Jack	-2910
PS	-2911
▁Gl	-2912
▁regard	-2913
▁hooked	-2914
▁replaced	-2915
▁secure	-2916
▁upon	-2917
▁lose	-2918
▁negative	-2919
▁depth	-2920
▁Gr	-2921
▁properly	-2922
▁Best	-2923
▁English	-2924
▁Pe	-2925
▁ten	-2926
▁reviewers	-2927
▁memory	-2928
▁colle	-2929
ously	-2930
▁provided	-2931
wr	-2932
▁anyway	-2933
▁message	-2934
ids	-2935
▁claim	-2936
1.	-2937
cer	-2938
▁fem	-2939
▁pill	-2940
irm	-2941
▁development	-2942
▁vi	-2943
▁printer	-2944
Al	-2945
▁recording	-2946
▁wonder	-2947
ups	-2948
But	-2949
▁Still	-2950
ergy	-2951
▁cry	-2952
▁mentioned	-2953
pri	-2954
3.	-2955
▁cred	-2956
▁beyond	-2957
▁clot	-2958
▁workout	-2959
▁FOR	-2960
▁office	-2961
▁sitting	-2962
▁bike	-2963
▁sand	-2964
▁acting	-2965
▁Rec	-2966
▁brings	-2967
▁conven	-2968
▁variety	-2969
iece	-2970
▁onto	-2971
▁rare	-2972
AM	-2973
▁section	-2974
▁feed	-2975
rage	-2976
▁website	-2977
▁murd	-2978
▁meas	-2979
▁stret	-2980
▁surprise	-2981
eless	-2982
▁holding	-2983
▁bath	-2984
▁library	-2985
▁land	-2986
You	-2987
▁REA	-2988
ID	-2989
▁beautifully	-2990
▁desk	-2991
▁hy	-2992
▁otherwise	-2993
▁applic	-2994
▁adapter	-2995
▁Black	-2996
▁flow	-2997
▁please	-2998
▁create	-2999
▁six	-3000
▁girls	-3001
▁brilli	-3002
omb	-3003
▁usual	-3004
▁Ms	-3005
▁appears	-3006
▁cho	-3007
▁edition	-3008
▁herself	-3009
▁brush	-3010
▁DO	-3011
weight	-3012
▁dan	-3013
30	-3014
REAT	-3015
der	-3016
rench	-3017
ese	-3018
hile	-3019
▁adventure	-3020
▁frame	-3021
▁accept	-3022
▁chair	-3023
▁required	-3024
▁perhaps	-3025
▁particularly	-3026
▁cleaning	-3027
▁Pre	-3028
▁ident	-3029
olution	-3030
▁upgr	-3031
▁quiet	-3032
▁moment	-3033
▁1/2	-3034
▁Does	-3035
▁forget	-3036
▁lower	-3037
▁Buy	-3038
▁offer	-3039
▁sides	-3040
ogn	-3041
▁party	-3042
gain	-3043
▁anymore	-3044
▁Read	-3045
▁repe	-3046
▁common	-3047
▁offers	-3048
▁ran	-3049
▁dest	-3050
ma	-3051
▁tiny	-3052
▁Sm	-3053
▁ground	-3054
▁ing	-3055
▁lif	-3056
▁rich	-3057
▁x	-3058
standing	-3059
▁Go	-3060
ify	-3061
!)	-3062
▁considering	-3063
▁graphics	-3064
▁crazy	-3065
▁terrible	-3066
▁reference	-3067
ension	-3068
▁anywhere	-3069
▁Our	-3070
ipping	-3071
▁share	-3072
AL	-3073
▁incredible	-3074
▁expectations	-3075
urch	-3076
▁Definitely	-3077
▁exception	-3078
▁exciting	-3079
▁professional	-3080
▁batt	-3081
▁Char	-3082
▁lyrics	-3083
▁Col	-3084
▁tools	-3085
▁educ	-3086
oop	-3087
icks	-3088
▁detailed	-3089
wood	-3090
▁worry	-3091
ective	-3092
▁altern	-3093
60	-3094
illy	-3095
tain	-3096
▁asked	-3097
▁choose	-3098
▁bags	-3099
Overall	-3100
▁spot	-3101
▁Te	-3102
▁shoot	-3103
mar	-3104
▁El	-3105
▁runs	-3106
val	-3107
uit	-3108
▁ride	-3109
▁bow	-3110
▁prep	-3111
▁bass	-3112
▁weak	-3113
▁camp	-3114
▁complex	-3115
orable	-3116
▁Loved	-3117
uing	-3118
port	-3119
▁ship	-3120
using	-3121
▁earlier	-3122
▁study	-3123
ey	-3124
▁compar	-3125
▁nut	-3126
▁Got	-3127
▁road	-3128
▁alot	-3129
▁SO	-3130
ossible	-3131
▁phys	-3132
▁wrote	-3133
▁Ed	-3134
anced	-3135
itter	-3136
▁clip	-3137
▁belt	-3138
ata	-3139
ateg	-3140
▁released	-3141
▁Dav	-3142
▁worst	-3143
▁average	-3144
▁manual	-3145
this	-3146
▁careful	-3147
▁doubt	-3148
▁photo	-3149
▁worn	-3150
▁faith	-3151
pack	-3152
▁charging	-3153
ogue	-3154
pro	-3155
▁cream	-3156
▁writes	-3157
▁twists	-3158
▁obs	-3159
▁position	-3160
cause	-3161
▁benef	-3162
▁PR	-3163
▁mel	-3164
▁cant	-3165
▁students	-3166
erson	-3167
▁attach	-3168
▁imagine	-3169
▁cell	-3170
CH	-3171
duction	-3172
ivity	-3173
ager	-3174
▁practice	-3175
▁trust	-3176
ified	-3177
▁further	-3178
▁talk	-3179
▁none	-3180
▁Per	-3181
▁Fire	-3182
▁Did	-3183
iner	-3184
▁11	-3185
▁Had	-3186
▁Wind	-3187
▁individual	-3188
▁hat	-3189
▁OK	-3190
▁pump	-3191
hel	-3192
▁drop	-3193
hood	-3194
▁complaints	-3195
▁minute	-3196
SE	-3197
▁breat	-3198
▁intend	-3199
▁involved	-3200
▁perspective	-3201
▁GREAT	-3202
▁PC	-3203
▁slee	-3204
000	-3205
▁familiar	-3206
ened	-3207
▁nail	-3208
▁streng	-3209
eed	-3210
▁tips	-3211
▁teacher	-3212
▁levels	-3213
▁forg	-3214
▁smart	-3215
▁likely	-3216
▁By	-3217
▁Wal	-3218
▁push	-3219
▁holes	-3220
▁recogn	-3221
▁puzz	-3222
▁email	-3223
▁changes	-3224
▁Gu	-3225
verse	-3226
▁energy	-3227
▁constantly	-3228
▁talking	-3229
▁WH	-3230
▁include	-3231
▁surface	-3232
vered	-3233
▁Ind	-3234
▁ye	-3235
▁nor	-3236
▁wireless	-3237
▁King	-3238
▁college	-3239
▁patter	-3240
▁genre	-3241
orage	-3242
▁America	-3243
▁update	-3244
exp	-3245
St	-3246
ivered	-3247
▁dropped	-3248
▁site	-3249
▁whatever	-3250
▁pred	-3251
nces	-3252
▁format	-3253
And	-3254
gar	-3255
▁bother	-3256
LD	-3257
▁relig	-3258
▁infl	-3259
▁circ	-3260
▁figured	-3261
▁lad	-3262
antic	-3263
▁tv	-3264
▁16	-3265
▁throw	-3266
uum	-3267
▁deser	-3268
▁inch	-3269
▁Bar	-3270
▁Mo	-3271
eries	-3272
▁web	-3273
For	-3274
friend	-3275
▁shot	-3276
▁tradition	-3277
▁impossible	-3278
ization	-3279
▁exist	-3280
▁becomes	-3281
▁directions	-3282
▁Dan	-3283
▁delic	-3284
▁grip	-3285
unt	-3286
▁options	-3287
▁lovely	-3288
▁speaker	-3289
▁jump	-3290
▁leak	-3291
▁following	-3292
99	-3293
▁fascinating	-3294
you	-3295
▁shower	-3296
▁mir	-3297
▁blade	-3298
vd	-3299
▁science	-3300
▁init	-3301
▁telling	-3302
▁artist	-3303
cent	-3304
▁fault	-3305
▁bon	-3306
▁horrible	-3307
▁total	-3308
▁introdu	-3309
nal	-3310
▁fol	-3311
▁public	-3312
▁consist	-3313
▁Why	-3314
▁minor	-3315
▁arm	-3316
▁reasonable	-3317
▁paint	-3318
What	-3319
▁thoroughly	-3320
▁includes	-3321
▁block	-3322
▁Bible	-3323
cher	-3324
▁cand	-3325
▁internet	-3326
ros	-3327
▁boot	-3328
▁admit	-3329
▁Another	-3330
▁40	-3331
▁Fin	-3332
overed	-3333
▁loss	-3334
▁Get	-3335
▁created	-3336
ences	-3337
ork	-3338
ctor	-3339
het	-3340
▁refund	-3341
ingly	-3342
▁dust	-3343
▁spray	-3344
▁contains	-3345
ica	-3346
▁incre	-3347
▁forever	-3348
▁medium	-3349
▁storage	-3350
▁final	-3351
▁viol	-3352
▁reve	-3353
▁mid	-3354
▁lasted	-3355
▁storyline	-3356
enn	-3357
▁faster	-3358
▁fly	-3359
▁meaning	-3360
▁effects	-3361
▁tough	-3362
▁intell	-3363
EM	-3364
fl	-3365
▁stays	-3366
▁covered	-3367
▁winter	-3368
All	-3369
▁receive	-3370
lease	-3371
▁greatest	-3372
▁user	-3373
▁surv	-3374
▁ink	-3375
▁mail	-3376
▁barely	-3377
amsung	-3378
▁frequ	-3379
▁practical	-3380
▁developed	-3381
▁worse	-3382
imate	-3383
▁manufacture	-3384
hod	-3385
bel	-3386
▁law	-3387
▁hole	-3388
▁warrant	-3389
▁tow	-3390
ipped	-3391
▁double	-3392
▁aware	-3393
▁gold	-3394
▁delivered	-3395
4.	-3396
▁psy	-3397
Than	-3398
rific	-3399
▁moved	-3400
▁Each	-3401
▁soci	-3402
▁necessary	-3403
▁writ	-3404
▁walking	-3405
▁compliments	-3406
▁areas	-3407
▁moments	-3408
eds	-3409
▁shop	-3410
▁dim	-3411
str	-3412
▁pink	-3413
▁types	-3414
▁shock	-3415
▁Oh	-3416
▁AM	-3417
▁settings	-3418
▁informative	-3419
▁vacuum	-3420
▁thanks	-3421
lla	-3422
▁chose	-3423
▁ult	-3424
▁strength	-3425
▁additional	-3426
action	-3427
key	-3428
▁finds	-3429
eter	-3430
▁Plus	-3431
▁scrat	-3432
▁Ge	-3433
▁conv	-3434
uro	-3435
ett	-3436
of	-3437
▁examples	-3438
▁realized	-3439
▁inexp	-3440
▁Somet	-3441
▁2.	-3442
40	-3443
▁info	-3444
▁Co	-3445
▁dvd	-3446
▁basically	-3447
▁meant	-3448
gest	-3449
▁typical	-3450
▁turning	-3451
5.	-3452
▁situation	-3453
▁MU	-3454
▁shown	-3455
▁moves	-3456
ashion	-3457
▁discuss	-3458
▁fantasy	-3459
▁devices	-3460
▁dollars	-3461
aul	-3462
yl	-3463
▁env	-3464
itty	-3465
▁lat	-3466
▁pressure	-3467
▁attached	-3468
▁Jes	-3469
▁Super	-3470
osp	-3471
▁AN	-3472
well	-3473
▁techni	-3474
▁ingred	-3475
▁digital	-3476
ionally	-3477
▁odd	-3478
▁monitor	-3479
▁state	-3480
▁realistic	-3481
ener	-3482
▁af	-3483
▁mini	-3484
▁ut	-3485
▁Keep	-3486
▁cas	-3487
▁label	-3488
▁films	-3489
▁mode	-3490
▁normally	-3491
▁iron	-3492
▁seconds	-3493
▁videos	-3494
edy	-3495
ental	-3496
▁document	-3497
▁blend	-3498
▁cross	-3499
▁ju	-3500
▁cartrid	-3501
pad	-3502
azz	-3503
▁NE	-3504
▁weather	-3505
▁deg	-3506
▁among	-3507
ker	-3508
▁flim	-3509
▁ALL	-3510
hael	-3511
▁afford	-3512
How	-3513
fortable	-3514
▁/	-3515
▁brands	-3516
oom	-3517
irty	-3518
with	-3519
▁brilliant	-3520
▁craft	-3521
▁experienced	-3522
▁began	-3523
▁hes	-3524
▁Who	-3525
▁bonus	-3526
▁reach	-3527
▁approach	-3528
▁nature	-3529
log	-3530
▁caught	-3531
▁Des	-3532
▁joy	-3533
ux	-3534
▁boys	-3535
▁stat	-3536
80	-3537
▁method	-3538
We	-3539
▁unlike	-3540
▁experiences	-3541
dy	-3542
▁specific	-3543
▁priced	-3544
▁cats	-3545
▁ice	-3546
▁ru	-3547
▁stated	-3548
▁female	-3549
▁eventually	-3550
orts	-3551
▁favorites	-3552
▁reviewer	-3553
▁avoid	-3554
▁wed	-3555
▁regret	-3556
ara	-3557
▁healthy	-3558
▁role	-3559
ior	-3560
ILL	-3561
uet	-3562
aur	-3563
▁cables	-3564
▁rou	-3565
▁compe	-3566
▁inexpensive	-3567
▁musical	-3568
▁World	-3569
▁tired	-3570
▁suit	-3571
rs	-3572
▁center	-3573
▁answer	-3574
een	-3575
ifts	-3576
▁connected	-3577
.-	-3578
▁respect	-3579
▁extend	-3580
aling	-3581
▁cooking	-3582
▁notes	-3583
ibility	-3584
▁wet	-3585
▁adults	-3586
▁team	-3587
▁construction	-3588
▁bud	-3589
ped	-3590
▁legs	-3591
▁firm	-3592
▁13	-3593
▁BU	-3594
▁counter	-3595
▁BUT	-3596
▁diss	-3597
▁Int	-3598
night	-3599
now	-3600
▁BE	-3601
▁solution	-3602
▁production	-3603
IM	-3604
▁trick	-3605
▁snug	-3606
▁spl	-3607
▁prompt	-3608
▁MY	-3609
▁indic	-3610
rors	-3611
▁lid	-3612
▁Sec	-3613
▁micro	-3614
▁subst	-3615
▁NO	-3616
▁depend	-3617
oot	-3618
▁creative	-3619
▁bucks	-3620
▁round	-3621
▁sequel	-3622
▁died	-3623
▁obviously	-3624
idence	-3625
▁Many	-3626
▁falling	-3627
▁imm	-3628
▁image	-3629
▁useless	-3630
do	-3631
arched	-3632
▁episode	-3633
▁Having	-3634
▁setup	-3635
▁outstanding	-3636
▁dish	-3637
▁flimsy	-3638
▁ears	-3639
▁instr	-3640
▁Your	-3641
▁scent	-3642
▁reality	-3643
▁Both	-3644
▁field	-3645
ocol	-3646
▁illustrations	-3647
ai	-3648
▁terms	-3649
sis	-3650
▁shut	-3651
▁scratch	-3652
▁kick	-3653
uality	-3654
▁25	-3655
gs	-3656
▁training	-3657
▁reli	-3658
▁despite	-3659
▁Pur	-3660
▁knowing	-3661
▁Tom	-3662
▁glasses	-3663
▁stretch	-3664
▁chem	-3665
▁diet	-3666
▁Could	-3667
ressed	-3668
▁rev	-3669
▁WAS	-3670
▁und	-3671
ronic	-3672
▁warranty	-3673
▁Aw	-3674
▁Star	-3675
▁Im	-3676
▁soul	-3677
mble	-3678
▁rough	-3679
▁James	-3680
▁wra	-3681
▁hesit	-3682
▁emotional	-3683
▁convenient	-3684
▁Looks	-3685
One	-3686
▁saved	-3687
arm	-3688
▁lived	-3689
▁Too	-3690
▁screws	-3691
▁Windows	-3692
▁Fe	-3693
▁remain	-3694
▁ahead	-3695
▁hasn	-3696
▁sizes	-3697
▁slide	-3698
▁pants	-3699
▁disappointing	-3700
▁damage	-3701
▁popular	-3702
ris	-3703
▁Nor	-3704
▁assemb	-3705
lement	-3706
▁14	-3707
▁placed	-3708
▁episodes	-3709
▁Everything	-3710
aming	-3711
▁packed	-3712
ores	-3713
▁surprising	-3714
▁engaging	-3715
▁career	-3716
▁literally	-3717
▁socks	-3718
▁relative	-3719
▁esc	-3720
▁leaving	-3721
▁compet	-3722
une	-3723
▁pure	-3724
▁personally	-3725
▁More	-3726
▁building	-3727
▁plugged	-3728
▁grandson	-3729
iron	-3730
▁bands	-3731
▁reasons	-3732
▁blood	-3733
▁finger	-3734
▁David	-3735
▁toys	-3736
▁magic	-3737
▁sam	-3738
ushed	-3739
▁returning	-3740
itted	-3741
▁eating	-3742
▁select	-3743
▁sup	-3744
ampire	-3745
▁drama	-3746
AD	-3747
▁theme	-3748
▁relax	-3749
▁ease	-3750
▁directly	-3751
▁Samsung	-3752
▁accident	-3753
▁zipp	-3754
ival	-3755
▁culture	-3756
▁incredibly	-3757
▁adds	-3758
▁ages	-3759
ief	-3760
▁Brit	-3761
▁hurt	-3762
▁believable	-3763
pha	-3764
▁sorry	-3765
▁younger	-3766
round	-3767
ieve	-3768
▁compan	-3769
▁prem	-3770
▁pet	-3771
▁minim	-3772
▁phones	-3773
▁compare	-3774
ero	-3775
▁Ab	-3776
▁manage	-3777
apan	-3778
▁plain	-3779
▁superb	-3780
lection	-3781
▁24	-3782
▁student	-3783
▁bri	-3784
▁bunch	-3785
▁enjoying	-3786
ooth	-3787
▁Mag	-3788
inary	-3789
▁manner	-3790
kin	-3791
roid	-3792
ION	-3793
▁predict	-3794
▁players	-3795
▁psych	-3796
▁charged	-3797
▁refres	-3798
▁scale	-3799
▁link	-3800
▁$2	-3801
▁discovered	-3802
▁hearing	-3803
upid	-3804
olf	-3805
▁limited	-3806
ointed	-3807
▁compact	-3808
icy	-3809
▁clothes	-3810
▁Fun	-3811
bl	-3812
▁reads	-3813
IGH	-3814
▁stain	-3815
▁subt	-3816
▁weird	-3817
▁honestly	-3818
itary	-3819
▁Nothing	-3820
ym	-3821
▁Because	-3822
▁bulky	-3823
▁Never	-3824
▁redu	-3825
▁die	-3826
hard	-3827
▁SH	-3828
▁changing	-3829
▁fashion	-3830
▁relate	-3831
▁strange	-3832
asp	-3833
▁tall	-3834
▁everywhere	-3835
▁followed	-3836
iculous	-3837
▁inches	-3838
ENT	-3839
▁recent	-3840
▁window	-3841
nel	-3842
▁facts	-3843
▁versions	-3844
OD	-3845
ads	-3846
rib	-3847
▁challenging	-3848
▁Mon	-3849
▁convers	-3850
▁steel	-3851
▁II	-3852
▁mouth	-3853
▁clock	-3854
ene	-3855
isk	-3856
▁lightweight	-3857
▁missed	-3858
▁showing	-3859
bit	-3860
▁keys	-3861
LLY	-3862
▁signific	-3863
look	-3864
▁tou	-3865
▁intended	-3866
▁falls	-3867
▁motor	-3868
▁Sw	-3869
▁unf	-3870
ils	-3871
▁bird	-3872
lied	-3873
▁growing	-3874
▁ske	-3875
▁mass	-3876
▁actors	-3877
bor	-3878
▁brown	-3879
▁descriptions	-3880
▁wore	-3881
▁data	-3882
▁Jesus	-3883
▁appeal	-3884
▁sensitive	-3885
ules	-3886
ilities	-3887
▁pockets	-3888
▁moist	-3889
▁apparent	-3890
TER	-3891
▁mechan	-3892
year	-3893
▁members	-3894
aled	-3895
▁insert	-3896
▁showed	-3897
▁social	-3898
ands	-3899
▁transl	-3900
▁prior	-3901
erfully	-3902
▁concerned	-3903
▁via	-3904
▁explan	-3905
pet	-3906
▁source	-3907
ius	-3908
▁packaged	-3909
▁Pri	-3910
They	-3911
▁Enjoy	-3912
ptical	-3913
erior	-3914
lessly	-3915
▁uncom	-3916
▁Michael	-3917
▁Out	-3918
iling	-3919
▁worried	-3920
raid	-3921
iful	-3922
▁flo	-3923
▁grab	-3924
▁prevent	-3925
▁presented	-3926
▁ach	-3927
▁puts	-3928
aches	-3929
▁fi	-3930
even	-3931
alled	-3932
▁passion	-3933
uty	-3934
ana	-3935
▁continues	-3936
▁Cle	-3937
was	-3938
▁flex	-3939
When	-3940
▁Bet	-3941
daughter	-3942
icle	-3943
▁junk	-3944
ques	-3945
▁loving	-3946
▁poorly	-3947
▁city	-3948
olly	-3949
▁political	-3950
▁router	-3951
▁Je	-3952
▁tele	-3953
▁log	-3954
isher	-3955
top	-3956
▁addict	-3957
▁images	-3958
mes	-3959
▁hits	-3960
▁situations	-3961
▁Beaut	-3962
▁failed	-3963
▁holder	-3964
▁tim	-3965
▁horror	-3966
▁teaching	-3967
UR	-3968
▁pin	-3969
acks	-3970
uetooth	-3971
amed	-3972
▁dem	-3973
▁cutting	-3974
▁Product	-3975
▁Let	-3976
af	-3977
icer	-3978
lled	-3979
ards	-3980
▁dance	-3981
▁direction	-3982
▁romantic	-3983
▁Sony	-3984
▁ce	-3985
▁originally	-3986
▁Ro	-3987
▁soap	-3988
▁relationships	-3989
▁sexy	-3990
uments	-3991
▁seriously	-3992
▁vib	-3993
▁lasts	-3994
▁attractive	-3995
agon	-3996
▁Cal	-3997
▁AS	-3998
▁Light	-3999
▁(1	-4000
▁Apple	-4001
▁slip	-4002
▁respons	-4003
▁Otherwise	-4004
ugs	-4005
▁credit	-4006
▁feelings	-4007
▁je	-4008
▁tone	-4009
▁ingredients	-4010
▁church	-4011
▁bottles	-4012
▁purse	-4013
▁straps	-4014
iest	-4015
uable	-4016
▁engine	-4017
▁thread	-4018
▁beauty	-4019
▁towards	-4020
On	-4021
▁mistake	-4022
▁evil	-4023
undred	-4024
▁smells	-4025
▁progress	-4026
▁gifts	-4027
▁installation	-4028
▁fear	-4029
▁thoughts	-4030
▁autom	-4031
▁traditional	-4032
order	-4033
gn	-4034
ortun	-4035
otes	-4036
▁Simp	-4037
▁object	-4038
▁reflect	-4039
ula	-4040
ocolate	-4041
▁div	-4042
arget	-4043
▁compelling	-4044
▁cy	-4045
▁dialogue	-4046
▁singing	-4047
eared	-4048
conom	-4049
.,	-4050
▁removed	-4051
▁magn	-4052
▁vocals	-4053
▁60	-4054
▁suck	-4055
dom	-4056
▁Japan	-4057
▁disappointment	-4058
▁scri	-4059
erous	-4060
▁skills	-4061
▁rout	-4062
▁willing	-4063
▁comments	-4064
▁beha	-4065
▁THAT	-4066
cei	-4067
idden	-4068
IR	-4069
▁inspir	-4070
aven	-4071
▁neigh	-4072
▁force	-4073
▁temper	-4074
▁animals	-4075
▁afraid	-4076
▁bill	-4077
pected	-4078
▁listed	-4079
▁shelf	-4080
arn	-4081
▁disp	-4082
▁determ	-4083
▁stupid	-4084
▁exchan	-4085
imately	-4086
▁199	-4087
▁environ	-4088
▁introduction	-4089
mary	-4090
▁combination	-4091
▁discover	-4092
orter	-4093
met	-4094
▁drag	-4095
▁emotions	-4096
iven	-4097
▁edges	-4098
ino	-4099
▁Robert	-4100
▁Time	-4101
ras	-4102
▁sale	-4103
▁pillow	-4104
icing	-4105
gle	-4106
▁ign	-4107
▁affect	-4108
▁electric	-4109
▁tear	-4110
▁snap	-4111
▁click	-4112
▁fat	-4113
▁Big	-4114
▁hardly	-4115
▁tap	-4116
KE	-4117
▁battle	-4118
ural	-4119
they	-4120
▁Awesome	-4121
▁buck	-4122
that	-4123
rop	-4124
▁concert	-4125
yle	-4126
EST	-4127
▁Ok	-4128
▁published	-4129
▁Wond	-4130
▁suppose	-4131
ITH	-4132
ham	-4133
▁signal	-4134
▁challenge	-4135
▁ur	-4136
▁path	-4137
▁repair	-4138
▁sized	-4139
▁Up	-4140
ein	-4141
▁whose	-4142
oses	-4143
▁tip	-4144
An	-4145
▁pulled	-4146
▁numbers	-4147
▁Sam	-4148
▁mixed	-4149
▁height	-4150
▁grad	-4151
iday	-4152
EL	-4153
aff	-4154
▁opportun	-4155
▁drum	-4156
▁potential	-4157
uel	-4158
▁China	-4159
▁truck	-4160
▁impact	-4161
▁hundred	-4162
▁Day	-4163
▁society	-4164
▁decor	-4165
▁LED	-4166
▁upgrade	-4167
▁Red	-4168
▁didnt	-4169
des	-4170
▁thrilled	-4171
▁cab	-4172
▁weren	-4173
▁danger	-4174
eg	-4175
▁Fits	-4176
▁wheel	-4177
▁Af	-4178
▁PS	-4179
logy	-4180
▁Please	-4181
▁offered	-4182
▁que	-4183
▁intellig	-4184
zer	-4185
▁Recommend	-4186
▁HAVE	-4187
orgeous	-4188
▁activ	-4189
▁male	-4190
resent	-4191
lls	-4192
▁separate	-4193
▁rain	-4194
▁script	-4195
▁measure	-4196
▁terrific	-4197
▁uns	-4198
▁ver	-4199
▁Two	-4200
'.	-4201
lly	-4202
▁brief	-4203
▁murder	-4204
▁searching	-4205
▁elements	-4206
▁drawn	-4207
bes	-4208
▁fingers	-4209
▁matt	-4210
▁teach	-4211
real	-4212
aded	-4213
reg	-4214
▁gain	-4215
piece	-4216
▁latest	-4217
zen	-4218
▁bathroom	-4219
▁Paul	-4220
▁hanging	-4221
urope	-4222
▁poet	-4223
iam	-4224
Great	-4225
▁iPod	-4226
▁steam	-4227
▁biggest	-4228
▁listened	-4229
▁address	-4230
▁equip	-4231
▁meets	-4232
OOK	-4233
▁wedding	-4234
oon	-4235
▁Rock	-4236
▁grind	-4237
ources	-4238
9.	-4239
ien	-4240
▁cre	-4241
▁snow	-4242
▁lighter	-4243
▁mill	-4244
ilarious	-4245
▁influ	-4246
▁writers	-4247
▁refreshing	-4248
▁LI	-4249
▁pleasure	-4250
estern	-4251
unting	-4252
▁Their	-4253
▁Here	-4254
▁steps	-4255
idge	-4256
ini	-4257
priate	-4258
▁balance	-4259
▁calls	-4260
ral	-4261
▁manufacturer	-4262
otic	-4263
ament	-4264
▁stro	-4265
▁knock	-4266
cro	-4267
bre	-4268
▁correctly	-4269
riage	-4270
▁AL	-4271
▁portray	-4272
-3	-4273
▁carrying	-4274
lock	-4275
▁stands	-4276
alax	-4277
oves	-4278
gy	-4279
▁chain	-4280
▁closed	-4281
!!!!!	-4282
▁previously	-4283
......	-4284
▁resist	-4285
▁driving	-4286
▁arg	-4287
iles	-4288
▁era	-4289
▁Mor	-4290
▁fish	-4291
▁grill	-4292
▁CH	-4293
onse	-4294
▁delicious	-4295
▁wonderfully	-4296
OS	-4297
!"	-4298
▁spring	-4299
▁headset	-4300
▁consid	-4301
▁17	-4302
▁BUY	-4303
▁dad	-4304
lusion	-4305
▁choices	-4306
▁memories	-4307
▁prop	-4308
▁sheets	-4309
▁din	-4310
▁wondering	-4311
▁jew	-4312
▁stere	-4313
hens	-4314
He	-4315
ancy	-4316
▁Though	-4317
▁unus	-4318
▁spin	-4319
▁paying	-4320
▁chew	-4321
MI	-4322
urity	-4323
▁AT	-4324
▁exercise	-4325
▁interview	-4326
ama	-4327
▁earth	-4328
ulation	-4329
▁gard	-4330
▁secret	-4331
▁ton	-4332
▁alternative	-4333
▁Del	-4334
▁wit	-4335
▁century	-4336
▁boyfriend	-4337
▁folks	-4338
pod	-4339
GE	-4340
▁Sometimes	-4341
alaxy	-4342
▁Mart	-4343
mat	-4344
rough	-4345
▁grew	-4346
▁Bra	-4347
▁pace	-4348
inst	-4349
ann	-4350
▁begins	-4351
ilos	-4352
▁loo	-4353
▁application	-4354
omen	-4355
ONE	-4356
▁enjoys	-4357
▁damaged	-4358
▁cups	-4359
▁WITH	-4360
rest	-4361
▁tour	-4362
▁military	-4363
ological	-4364
▁Gar	-4365
▁trim	-4366
▁complic	-4367
Also	-4368
▁equipment	-4369
rel	-4370
▁harder	-4371
▁Step	-4372
▁indeed	-4373
▁fabulous	-4374
▁kinda	-4375
▁thri	-4376
cious	-4377
▁awful	-4378
ELL	-4379
Not	-4380
▁Wish	-4381
roy	-4382
▁surround	-4383
▁Life	-4384
▁club	-4385
▁Purcha	-4386
▁econom	-4387
▁media	-4388
▁Hard	-4389
umes	-4390
▁cloth	-4391
▁raz	-4392
▁neat	-4393
▁wild	-4394
▁tank	-4395
edic	-4396
▁Lots	-4397
▁sight	-4398
▁ridiculous	-4399
▁audience	-4400
▁WOR	-4401
erry	-4402
▁arr	-4403
▁visit	-4404
eded	-4405
▁Ord	-4406
osh	-4407
CT	-4408
rets	-4409
unning	-4410
▁0	-4411
gel	-4412
▁tub	-4413
▁stream	-4414
ribut	-4415
▁explains	-4416
▁decide	-4417
▁adding	-4418
▁Tra	-4419
▁gloves	-4420
▁currently	-4421
▁environment	-4422
stal	-4423
aching	-4424
ald	-4425
▁amazed	-4426
▁gover	-4427
▁indust	-4428
▁topic	-4429
▁gorgeous	-4430
▁3.	-4431
▁vampire	-4432
▁pool	-4433
▁Mus	-4434
▁possibly	-4435
▁mattress	-4436
umps	-4437
ayer	-4438
▁tries	-4439
▁charm	-4440
▁answers	-4441
▁models	-4442
ression	-4443
fere	-4444
ilosop	-4445
▁absor	-4446
ov	-4447
▁relatively	-4448
OME	-4449
?"	-4450
▁blank	-4451
▁Net	-4452
ule	-4453
oes	-4454
▁3-	-4455
isp	-4456
esides	-4457
▁skill	-4458
▁Has	-4459
▁requires	-4460
▁bread	-4461
▁errors	-4462
▁Europe	-4463
▁hilarious	-4464
▁anti	-4465
▁technology	-4466
▁jacket	-4467
raft	-4468
▁sugar	-4469
aughters	-4470
▁names	-4471
▁thru	-4472
US	-4473
▁York	-4474
▁washing	-4475
▁breaking	-4476
▁aspects	-4477
kn	-4478
▁materials	-4479
▁heroine	-4480
▁heads	-4481
▁spiritual	-4482
▁resource	-4483
▁breath	-4484
fy	-4485
▁clever	-4486
▁wis	-4487
▁comedy	-4488
-2	-4489
▁awhile	-4490
icient	-4491
▁hell	-4492
atives	-4493
host	-4494
▁helping	-4495
▁angle	-4496
▁fixed	-4497
▁intense	-4498
Cons	-4499
▁sink	-4500
▁scan	-4501
▁syn	-4502
down	-4503
▁rot	-4504
▁response	-4505
▁Instead	-4506
track	-4507
▁bend	-4508
▁artists	-4509
ternal	-4510
▁granddaughter	-4511
▁wont	-4512
▁movement	-4513
itude	-4514
▁transfer	-4515
▁Add	-4516
▁improvement	-4517
▁ban	-4518
▁Much	-4519
▁apps	-4520
azing	-4521
▁supply	-4522
▁Li	-4523
tt	-4524
▁pian	-4525
▁planning	-4526
▁lessons	-4527
▁uncomfortable	-4528
▁gir	-4529
▁backpack	-4530
▁magaz	-4531
▁sick	-4532
▁numerous	-4533
▁rack	-4534
▁intriguing	-4535
▁tree	-4536
▁jud	-4537
ga	-4538
▁silver	-4539
entle	-4540
▁hoped	-4541
▁selling	-4542
apers	-4543
▁slim	-4544
▁butter	-4545
erman	-4546
PP	-4547
▁brain	-4548
▁unfortunately	-4549
▁bored	-4550
ept	-4551
▁French	-4552
▁downloaded	-4553
▁highlight	-4554
▁generally	-4555
▁analy	-4556
▁allowed	-4557
▁recipe	-4558
▁chocolate	-4559
▁Everyone	-4560
▁thus	-4561
▁techniques	-4562
▁Par	-4563
▁clar	-4564
OOD	-4565
▁contem	-4566
▁Wow	-4567
▁Ear	-4568
onna	-4569
▁unex	-4570
umin	-4571
▁yellow	-4572
▁cookbook	-4573
▁veh	-4574
▁till	-4575
▁stiff	-4576
▁tab	-4577
▁duty	-4578
oly	-4579
ords	-4580
Re	-4581
70	-4582
kend	-4583
she	-4584
▁friendly	-4585
▁somewhere	-4586
▁technical	-4587
fi	-4588
▁portable	-4589
▁ONE	-4590
uce	-4591
▁below	-4592
▁spending	-4593
▁nav	-4594
▁motiv	-4595
▁adorable	-4596
▁enth	-4597
Th	-4598
▁vill	-4599
inn	-4600
▁scient	-4601
▁consum	-4602
rehens	-4603
▁confusing	-4604
▁considered	-4605
▁forth	-4606
▁talented	-4607
▁crap	-4608
rings	-4609
▁Perhaps	-4610
▁controls	-4611
▁describe	-4612
▁successful	-4613
▁prec	-4614
▁Boy	-4615
▁fac	-4616
▁Part	-4617
▁90	-4618
▁Hall	-4619
▁files	-4620
▁states	-4621
▁teeth	-4622
ded	-4623
▁emb	-4624
▁curi	-4625
▁govern	-4626
▁produced	-4627
▁arms	-4628
ration	-4629
▁slowly	-4630
▁projects	-4631
▁foam	-4632
aid	-4633
▁strateg	-4634
▁frustrating	-4635
nect	-4636
▁visual	-4637
▁soo	-4638
▁Ev	-4639
gl	-4640
▁contr	-4641
▁Pat	-4642
▁milk	-4643
▁peace	-4644
▁Hop	-4645
▁magnet	-4646
appy	-4647
ploy	-4648
▁Mark	-4649
orrow	-4650
▁inspiring	-4651
▁expert	-4652
vant	-4653
▁texture	-4654
▁HP	-4655
▁pleasant	-4656
▁news	-4657
▁reminds	-4658
▁wrist	-4659
▁rated	-4660
▁predictable	-4661
▁dirty	-4662
sle	-4663
▁rechar	-4664
aked	-4665
▁hur	-4666
▁creating	-4667
▁corner	-4668
▁trash	-4669
▁imagination	-4670
ushing	-4671
▁Comp	-4672
▁alive	-4673
▁Way	-4674
vision	-4675
▁hose	-4676
▁lets	-4677
ivers	-4678
▁las	-4679
made	-4680
▁1.	-4681
▁empt	-4682
▁washed	-4683
▁blades	-4684
lin	-4685
▁marriage	-4686
:-	-4687
▁boxes	-4688
▁waist	-4689
ieved	-4690
IL	-4691
▁instrument	-4692
▁tastes	-4693
▁forced	-4694
▁childhood	-4695
▁80	-4696
▁lift	-4697
▁Being	-4698
.00	-4699
▁ped	-4700
▁report	-4701
▁Finally	-4702
▁thinks	-4703
ora	-4704
▁PL	-4705
can	-4706
▁Blue	-4707
That	-4708
▁Ben	-4709
ushes	-4710
ivil	-4711
▁bol	-4712
▁Canon	-4713
▁shame	-4714
▁Mat	-4715
▁pads	-4716
▁spare	-4717
istry	-4718
rived	-4719
▁struggle	-4720
▁struct	-4721
Now	-4722
▁BOOK	-4723
▁selection	-4724
▁grade	-4725
ceived	-4726
random	-4727
After	-4728
IE	-4729
▁dealing	-4730
▁recorded	-4731
▁Thom	-4732
iment	-4733
▁cush	-4734
icken	-4735
▁jeans	-4736
▁hardware	-4737
ATE	-4738
iled	-4739
vis	-4740
▁narrow	-4741
▁exchange	-4742
▁saving	-4743
▁Coll	-4744
▁saf	-4745
▁beach	-4746
▁weekend	-4747
omend	-4748
egr	-4749
▁somehow	-4750
▁bubb	-4751
lfriend	-4752
dden	-4753
▁inner	-4754
▁doctor	-4755
▁philosop	-4756
▁assemble	-4757
aves	-4758
▁Again	-4759
oun	-4760
cient	-4761
▁wears	-4762
▁irrit	-4763
belie	-4764
▁boo	-4765
▁peel	-4766
roc	-4767
▁cuts	-4768
▁cars	-4769
▁La	-4770
▁handles	-4771
▁id	-4772
▁network	-4773
▁pictured	-4774
No	-4775
▁desire	-4776
However	-4777
ado	-4778
▁topics	-4779
▁code	-4780
▁Over	-4781
oman	-4782
▁bur	-4783
CD	-4784
▁mood	-4785
vin	-4786
▁happier	-4787
▁random	-4788
▁shopping	-4789
written	-4790
▁appropriate	-4791
▁becoming	-4792
▁hint	-4793
▁reliable	-4794
▁gram	-4795
▁flip	-4796
▁Cr	-4797
▁Frank	-4798
udd	-4799
bage	-4800
▁concepts	-4801
▁..	-4802
▁accompl	-4803
▁Purchased	-4804
▁station	-4805
▁captiv	-4806
▁jewel	-4807
▁clim	-4808
icip	-4809
▁narrative	-4810
▁bedroom	-4811
▁wid	-4812
▁stylish	-4813
▁vs	-4814
izz	-4815
▁unable	-4816
▁container	-4817
▁opportunity	-4818
▁Lu	-4819
pes	-4820
▁hom	-4821
▁stage	-4822
BLE	-4823
efully	-4824
▁impressive	-4825
▁pleasantly	-4826
▁glue	-4827
porary	-4828
uthor	-4829
▁sudden	-4830
▁wallet	-4831
▁Worth	-4832
▁Ric	-4833
▁tube	-4834
▁touching	-4835
▁pounds	-4836
urs	-4837
apped	-4838
▁functions	-4839
▁cabin	-4840
▁scratches	-4841
Don	-4842
▁trail	-4843
sm	-4844
▁SU	-4845
amb	-4846
▁brace	-4847
▁led	-4848
▁Fit	-4849
▁decision	-4850
▁colorful	-4851
----	-4852
▁Med	-4853
▁losing	-4854
▁Green	-4855
▁Grand	-4856
11	-4857
▁vend	-4858
▁pattern	-4859
▁recomend	-4860
▁checked	-4861
rees	-4862
rey	-4863
▁Hope	-4864
▁dull	-4865
▁maker	-4866
▁communic	-4867
▁Jim	-4868
▁vel	-4869
▁frequently	-4870
▁bowl	-4871
▁traveling	-4872
▁spots	-4873
▁Mary	-4874
▁error	-4875
▁vivid	-4876
▁Alex	-4877
▁elsewhere	-4878
proof	-4879
rely	-4880
▁EV	-4881
▁physical	-4882
RA	-4883
▁killer	-4884
▁Em	-4885
▁hi	-4886
▁plant	-4887
',	-4888
▁contacted	-4889
▁lover	-4890
▁behavi	-4891
▁former	-4892
gers	-4893
▁remark	-4894
▁stayed	-4895
▁benefit	-4896
▁proof	-4897
▁complicated	-4898
▁fro	-4899
▁priv	-4900
▁incor	-4901
▁sections	-4902
▁demon	-4903
mpoo	-4904
▁promised	-4905
▁rhy	-4906
akers	-4907
gend	-4908
▁rent	-4909
▁deeper	-4910
▁entertainment	-4911
oe	-4912
▁max	-4913
▁adjustable	-4914
▁timely	-4915
▁White	-4916
▁investig	-4917
▁wrap	-4918
ios	-4919
▁prepared	-4920
▁caused	-4921
irts	-4922
▁plate	-4923
▁liqu	-4924
▁Little	-4925
▁passed	-4926
▁gentle	-4927
▁pun	-4928
▁outd	-4929
▁HDMI	-4930
▁closer	-4931
▁todd	-4932
isters	-4933
▁drives	-4934
▁jazz	-4935
▁ast	-4936
ket	-4937
ording	-4938
OULD	-4939
▁strongly	-4940
▁famous	-4941
!!!!!!!!	-4942
hetic	-4943
▁functional	-4944
▁Gold	-4945
▁happening	-4946
▁miles	-4947
▁breaks	-4948
▁tie	-4949
▁mainly	-4950
▁improved	-4951
▁protects	-4952
ively	-4953
ita	-4954
▁sticks	-4955
▁opt	-4956
▁casual	-4957
▁Cont	-4958
▁train	-4959
▁costume	-4960
ORE	-4961
incip	-4962
▁virt	-4963
▁Beautiful	-4964
▁bulb	-4965
hew	-4966
▁gas	-4967
Be	-4968
▁coat	-4969
▁skeptical	-4970
▁Fast	-4971
▁carefully	-4972
12	-4973
wing	-4974
▁mirror	-4975
while	-4976
▁anticip	-4977
▁stress	-4978
▁asking	-4979
▁compat	-4980
▁unexpected	-4981
equ	-4982
aste	-4983
▁entirely	-4984
▁letters	-4985
▁presents	-4986
▁zipper	-4987
▁fighting	-4988
▁George	-4989
illed	-4990
▁razor	-4991
▁maintain	-4992
▁trilogy	-4993
▁temperature	-4994
▁essential	-4995
arily	-4996
▁basis	-4997
▁affordable	-4998
▁fitting	-4999
▁British	-5000
▁lol	-5001
▁swit	-5002
ators	-5003
▁vict	-5004
▁dirt	-5005
▁Act	-5006
▁Abs	-5007
▁investment	-5008
▁sweat	-5009
hol	-5010
KS	-5011
▁slipp	-5012
▁toward	-5013
▁defective	-5014
atically	-5015
▁valuable	-5016
▁kinds	-5017
▁tears	-5018
▁girlfriend	-5019
▁Makes	-5020
▁sheet	-5021
▁exercises	-5022
▁units	-5023
▁represent	-5024
▁bars	-5025
▁extended	-5026
▁thats	-5027
icles	-5028
▁USA	-5029
▁editing	-5030
▁crime	-5031
▁leads	-5032
▁thriller	-5033
▁Es	-5034
▁People	-5035
▁community	-5036
▁5.	-5037
▁tooth	-5038
▁clips	-5039
▁busy	-5040
▁solo	-5041
▁Str	-5042
cast	-5043
▁thrown	-5044
▁organized	-5045
▁constant	-5046
▁Jan	-5047
▁references	-5048
▁tested	-5049
▁target	-5050
ormal	-5051
▁costs	-5052
uine	-5053
▁singer	-5054
▁laug	-5055
▁compart	-5056
▁compos	-5057
▁fle	-5058
▁Ken	-5059
▁Pan	-5060
▁controller	-5061
inese	-5062
▁introduced	-5063
▁rarely	-5064
under	-5065
▁receiver	-5066
urb	-5067
▁viewing	-5068
▁safety	-5069
▁Night	-5070
iers	-5071
▁paced	-5072
▁government	-5073
hand	-5074
▁windows	-5075
▁printed	-5076
▁Rep	-5077
▁generation	-5078
▁apparently	-5079
UN	-5080
amic	-5081
ague	-5082
▁egg	-5083
illa	-5084
essed	-5085
▁Wr	-5086
▁;	-5087
ales	-5088
▁silly	-5089
▁soundtrack	-5090
▁vacation	-5091
▁doesnt	-5092
▁delightful	-5093
?)	-5094
▁spark	-5095
mark	-5096
▁yog	-5097
▁deserves	-5098
▁grown	-5099
▁repet	-5100
▁related	-5101
▁rap	-5102
▁rat	-5103
▁Sil	-5104
▁anten	-5105
sequ	-5106
ifically	-5107
▁copies	-5108
▁zomb	-5109
▁treatment	-5110
▁Brown	-5111
▁puzzle	-5112
ANT	-5113
▁shouldn	-5114
star	-5115
kward	-5116
▁blow	-5117
▁vo	-5118
▁married	-5119
▁bubbles	-5120
▁OR	-5121
ek	-5122
ildren	-5123
inct	-5124
▁named	-5125
▁cleaner	-5126
inated	-5127
gant	-5128
▁driver	-5129
▁hidden	-5130
print	-5131
▁performances	-5132
▁laughing	-5133
ada	-5134
good	-5135
rupt	-5136
sey	-5137
UL	-5138
▁carpet	-5139
free	-5140
▁arch	-5141
▁shampoo	-5142
EAR	-5143
▁daughters	-5144
▁belief	-5145
▁respond	-5146
▁Mad	-5147
▁hadn	-5148
▁regarding	-5149
▁deb	-5150
▁lamp	-5151
▁pregn	-5152
▁refer	-5153
▁lesson	-5154
▁suggested	-5155
some	-5156
▁Afric	-5157
▁filters	-5158
aries	-5159
la	-5160
olds	-5161
OL	-5162
▁mad	-5163
lict	-5164
GH	-5165
▁beginner	-5166
▁explained	-5167
▁Jew	-5168
▁Last	-5169
▁:-	-5170
▁tag	-5171
▁suspect	-5172
▁melod	-5173
▁beats	-5174
▁seasons	-5175
▁recordings	-5176
▁exper	-5177
▁ANY	-5178
▁Bob	-5179
Thank	-5180
tter	-5181
▁thicker	-5182
icial	-5183
▁budget	-5184
▁sch	-5185
▁map	-5186
▁ther	-5187
hest	-5188
▁religious	-5189
oogle	-5190
▁bab	-5191
aint	-5192
▁Lord	-5193
lle	-5194
▁lbs	-5195
▁managed	-5196
▁WW	-5197
▁Spe	-5198
vo	-5199
rink	-5200
ECT	-5201
▁guessing	-5202
▁distract	-5203
▁piano	-5204
▁member	-5205
▁bear	-5206
▁appreciated	-5207
usion	-5208
▁West	-5209
house	-5210
▁Jul	-5211
▁wrapped	-5212
isc	-5213
▁Sl	-5214
▁comfy	-5215
▁vocal	-5216
▁broad	-5217
▁Bel	-5218
▁Home	-5219
▁bulk	-5220
▁deliver	-5221
itam	-5222
▁mac	-5223
▁animal	-5224
▁gym	-5225
▁prices	-5226
▁killed	-5227
▁charges	-5228
▁critic	-5229
▁families	-5230
▁yard	-5231
▁rear	-5232
▁inspired	-5233
▁cake	-5234
▁medic	-5235
▁superior	-5236
ille	-5237
▁sending	-5238
▁premise	-5239
▁trips	-5240
UST	-5241
▁factory	-5242
▁Chan	-5243
▁underst	-5244
law	-5245
▁Play	-5246
▁bits	-5247
▁seal	-5248
▁advanced	-5249
▁medical	-5250
▁protected	-5251
▁princip	-5252
airs	-5253
▁Seems	-5254
▁Sol	-5255
▁garbage	-5256
▁Sim	-5257
▁fort	-5258
▁lady	-5259
▁wheels	-5260
▁born	-5261
ugged	-5262
▁Wi	-5263
▁assum	-5264
ees	-5265
▁Looking	-5266
▁garage	-5267
▁god	-5268
otton	-5269
olutely	-5270
▁Cam	-5271
▁Harry	-5272
ette	-5273
war	-5274
▁portion	-5275
▁claims	-5276
▁challenges	-5277
▁serve	-5278
▁skip	-5279
▁score	-5280
▁promptly	-5281
rated	-5282
▁literature	-5283
▁police	-5284
▁appearance	-5285
oups	-5286
avy	-5287
▁sole	-5288
▁element	-5289
▁produce	-5290
▁hopes	-5291
▁interp	-5292
▁stronger	-5293
▁sleeping	-5294
▁wise	-5295
▁television	-5296
▁adapt	-5297
▁scary	-5298
▁mold	-5299
gu	-5300
▁Wonderful	-5301
▁GPS	-5302
▁conclusion	-5303
IF	-5304
▁Lee	-5305
▁tunes	-5306
▁meat	-5307
illing	-5308
anc	-5309
▁du	-5310
▁sexual	-5311
▁ideal	-5312
than	-5313
hent	-5314
▁interact	-5315
▁awkward	-5316
▁GOOD	-5317
▁comparison	-5318
▁tons	-5319
▁describes	-5320
▁iphone	-5321
miss	-5322
acity	-5323
whel	-5324
▁commer	-5325
▁abuse	-5326
▁TR	-5327
▁wasted	-5328
▁express	-5329
rag	-5330
boy	-5331
▁whom	-5332
▁penny	-5333
▁replacing	-5334
▁Sch	-5335
known	-5336
These	-5337
▁Holly	-5338
ola	-5339
▁guest	-5340
Very	-5341
▁whenever	-5342
▁auto	-5343
▁conflict	-5344
▁oh	-5345
stick	-5346
▁satisfying	-5347
date	-5348
▁nails	-5349
▁cracked	-5350
▁shoulder	-5351
oted	-5352
▁198	-5353
▁yr	-5354
Good	-5355
▁anx	-5356
▁retail	-5357
▁FR	-5358
▁destroy	-5359
ye	-5360
▁repeated	-5361
▁empty	-5362
ONG	-5363
▁adventures	-5364
▁Tri	-5365
▁Before	-5366
▁pairs	-5367
▁tension	-5368
▁shorter	-5369
point	-5370
▁researched	-5371
▁hassle	-5372
▁Max	-5373
▁shots	-5374
6.	-5375
▁applied	-5376
▁genuine	-5377
berry	-5378
▁expand	-5379
▁foods	-5380
▁emotion	-5381
▁Phil	-5382
IGHT	-5383
▁Price	-5384
▁WILL	-5385
▁photograph	-5386
▁Sy	-5387
2)	-5388
ida	-5389
▁od	-5390
beat	-5391
▁70	-5392
▁rip	-5393
▁insights	-5394
▁arrive	-5395
▁Anyone	-5396
▁neither	-5397
▁$20	-5398
▁Inc	-5399
▁ap	-5400
▁transform	-5401
▁distance	-5402
ka	-5403
▁file	-5404
▁Joe	-5405
anish	-5406
ERE	-5407
leep	-5408
▁studio	-5409
▁ment	-5410
text	-5411
▁$3	-5412
▁Galaxy	-5413
rie	-5414
▁protagon	-5415
7.	-5416
lor	-5417
alt	-5418
lies	-5419
soft	-5420
▁genius	-5421
▁follows	-5422
▁drops	-5423
▁upset	-5424
▁wires	-5425
▁unbelie	-5426
▁violence	-5427
▁powder	-5428
▁Rem	-5429
▁reasonably	-5430
▁Hol	-5431
▁continu	-5432
▁ARE	-5433
▁bull	-5434
▁greatly	-5435
▁aside	-5436
▁lacking	-5437
▁surf	-5438
▁constructed	-5439
outs	-5440
▁raw	-5441
▁Girl	-5442
▁basket	-5443
▁hopefully	-5444
▁struggles	-5445
▁disco	-5446
uts	-5447
▁lovers	-5448
hentic	-5449
▁Dark	-5450
▁string	-5451
▁Power	-5452
▁theory	-5453
▁orange	-5454
▁Hel	-5455
▁Japanese	-5456
▁stylus	-5457
▁therefore	-5458
▁graphic	-5459
▁Sure	-5460
▁comprehens	-5461
▁MP	-5462
II	-5463
ki	-5464
▁fool	-5465
terday	-5466
▁heavier	-5467
▁$10	-5468
izer	-5469
▁leaders	-5470
▁initially	-5471
▁exec	-5472
▁justice	-5473
▁alarm	-5474
▁input	-5475
▁sticky	-5476
▁City	-5477
▁solve	-5478
new	-5479
▁Pet	-5480
To	-5481
▁external	-5482
?!	-5483
vy	-5484
men	-5485
▁subtle	-5486
▁Ob	-5487
who	-5488
▁comic	-5489
▁Second	-5490
▁5-	-5491
▁output	-5492
▁risk	-5493
eras	-5494
▁purple	-5495
▁weap	-5496
craft	-5497
▁newer	-5498
▁tune	-5499
▁protective	-5500
▁furn	-5501
entially	-5502
▁industry	-5503
tw	-5504
▁dollar	-5505
ibl	-5506
▁difficulty	-5507
▁minimal	-5508
▁overly	-5509
▁bulbs	-5510
▁Amazing	-5511
ulf	-5512
▁crisp	-5513
▁neckl	-5514
ession	-5515
▁hung	-5516
alian	-5517
inger	-5518
▁Make	-5519
▁encourage	-5520
▁antenna	-5521
▁adequ	-5522
▁eight	-5523
dri	-5524
mart	-5525
▁request	-5526
▁balls	-5527
▁REALLY	-5528
▁Ann	-5529
fit	-5530
▁lucky	-5531
▁South	-5532
▁diam	-5533
itation	-5534
rier	-5535
ano	-5536
▁quit	-5537
▁multi	-5538
▁oven	-5539
GB	-5540
andy	-5541
▁Bill	-5542
OP	-5543
▁installment	-5544
▁Miss	-5545
acle	-5546
▁smile	-5547
EE	-5548
▁Cor	-5549
▁styles	-5550
hable	-5551
▁spect	-5552
▁swim	-5553
esh	-5554
Ch	-5555
ulate	-5556
▁inn	-5557
▁downside	-5558
▁cartridges	-5559
▁actions	-5560
▁assembly	-5561
▁delivers	-5562
▁threw	-5563
,000	-5564
▁heel	-5565
ander	-5566
▁Need	-5567
asure	-5568
▁bree	-5569
▁ge	-5570
▁race	-5571
▁pricey	-5572
▁patterns	-5573
▁integr	-5574
▁drill	-5575
▁AMA	-5576
▁pulling	-5577
▁location	-5578
▁prose	-5579
▁Used	-5580
Un	-5581
▁knives	-5582
▁temp	-5583
▁shooting	-5584
▁friendship	-5585
▁spread	-5586
▁magazine	-5587
........	-5588
▁security	-5589
ICE	-5590
▁5'	-5591
▁puzzles	-5592
▁Scott	-5593
▁sounded	-5594
▁Met	-5595
▁Disney	-5596
▁dom	-5597
▁wine	-5598
▁Micro	-5599
▁corners	-5600
arted	-5601
▁Mel	-5602
▁sports	-5603
CE	-5604
▁achieve	-5605
▁zero	-5606
▁gel	-5607
▁deeply	-5608
▁Air	-5609
▁stainless	-5610
▁Pol	-5611
washer	-5612
▁diag	-5613
▁Fant	-5614
▁encoura	-5615
▁significant	-5616
8.	-5617
▁rings	-5618
▁resol	-5619
▁sharing	-5620
▁debut	-5621
▁performed	-5622
▁German	-5623
cover	-5624
▁unusual	-5625
cr	-5626
▁stereo	-5627
▁cartridge	-5628
▁mob	-5629
▁qual	-5630
▁Use	-5631
▁Ser	-5632
ification	-5633
▁dryer	-5634
bble	-5635
▁197	-5636
zing	-5637
▁Richard	-5638
▁owner	-5639
▁SP	-5640
▁degree	-5641
plete	-5642
▁receiving	-5643
▁mas	-5644
▁Ray	-5645
▁House	-5646
Bl	-5647
▁chemical	-5648
▁England	-5649
ograp	-5650
▁Pretty	-5651
▁sock	-5652
▁musicians	-5653
▁tray	-5654
▁letter	-5655
▁flu	-5656
ena	-5657
▁bat	-5658
▁Chinese	-5659
▁cleans	-5660
▁attack	-5661
▁Ir	-5662
▁gear	-5663
ongs	-5664
▁AW	-5665
anted	-5666
▁weigh	-5667
IVE	-5668
▁standing	-5669
▁waited	-5670
ESS	-5671
▁laughed	-5672
▁defe	-5673
▁noticeable	-5674
▁depart	-5675
She	-5676
▁Peter	-5677
▁liquid	-5678
▁neighbor	-5679
▁ham	-5680
▁Whe	-5681
▁flexible	-5682
▁compon	-5683
▁shiny	-5684
▁riding	-5685
▁horse	-5686
▁Set	-5687
▁enhan	-5688
▁garden	-5689
▁glove	-5690
Thanks	-5691
▁Absolutely	-5692
▁assist	-5693
▁overwhel	-5694
ache	-5695
sters	-5696
---	-5697
▁rob	-5698
ops	-5699
▁picking	-5700
arant	-5701
▁den	-5702
uses	-5703
▁instantly	-5704
▁nose	-5705
otten	-5706
▁dinner	-5707
▁Glad	-5708
▁surprisingly	-5709
!).	-5710
▁subs	-5711
▁Log	-5712
▁publisher	-5713
▁watches	-5714
▁navig	-5715
▁EVERY	-5716
Just	-5717
▁remains	-5718
▁cushion	-5719
olic	-5720
▁CDs	-5721
▁evening	-5722
ollow	-5723
phew	-5724
▁recognize	-5725
▁ports	-5726
▁initial	-5727
▁wake	-5728
▁dreams	-5729
▁christ	-5730
oust	-5731
▁sample	-5732
With	-5733
ta	-5734
▁Sur	-5735
▁journal	-5736
etime	-5737
▁hip	-5738
▁ipod	-5739
▁myth	-5740
▁Case	-5741
yal	-5742
▁specifically	-5743
▁Thomas	-5744
▁installing	-5745
▁Class	-5746
▁lip	-5747
▁smoothly	-5748
hist	-5749
▁drug	-5750
▁authentic	-5751
▁4-	-5752
epend	-5753
▁READ	-5754
eresting	-5755
ship	-5756
erious	-5757
▁nephew	-5758
▁Sound	-5759
▁Season	-5760
bud	-5761
▁tan	-5762
▁Those	-5763
▁escape	-5764
rian	-5765
gly	-5766
coming	-5767
▁deck	-5768
▁Back	-5769
▁vendor	-5770
▁silic	-5771
iver	-5772
▁caps	-5773
▁sits	-5774
▁personality	-5775
afe	-5776
▁Made	-5777
▁bent	-5778
▁square	-5779
▁survive	-5780
▁Where	-5781
▁lighting	-5782
▁toe	-5783
▁circum	-5784
▁leading	-5785
▁AC	-5786
▁instruction	-5787
▁emp	-5788
▁taught	-5789
▁gonna	-5790
▁OEM	-5791
▁Cons	-5792
▁occasionally	-5793
aving	-5794
▁systems	-5795
ady	-5796
▁Russ	-5797
inding	-5798
▁Try	-5799
▁conditions	-5800
▁gem	-5801
▁ghost	-5802
▁pit	-5803
▁discussion	-5804
▁accessories	-5805
▁sales	-5806
▁core	-5807
▁San	-5808
▁ens	-5809
▁SD	-5810
▁cotton	-5811
▁hous	-5812
oles	-5813
alend	-5814
▁term	-5815
▁disk	-5816
▁CAN	-5817
asty	-5818
▁reminded	-5819
▁Tre	-5820
mi	-5821
iture	-5822
▁insightful	-5823
▁earrings	-5824
soci	-5825
hold	-5826
▁explanation	-5827
▁programs	-5828
▁transport	-5829
edom	-5830
▁companies	-5831
lebr	-5832
▁nur	-5833
▁suction	-5834
▁enem	-5835
▁pour	-5836
▁cameras	-5837
▁supplement	-5838
▁Series	-5839
▁van	-5840
▁stunning	-5841
▁employ	-5842
▁spoil	-5843
hered	-5844
▁occur	-5845
ummy	-5846
▁intelligent	-5847
▁Blu	-5848
▁RE	-5849
▁vehicle	-5850
ements	-5851
unction	-5852
rate	-5853
▁dishwasher	-5854
▁darker	-5855
▁tur	-5856
▁creates	-5857
ilation	-5858
▁vent	-5859
vey	-5860
▁thous	-5861
▁Smith	-5862
▁lunch	-5863
AST	-5864
▁IM	-5865
▁vision	-5866
▁mild	-5867
▁curious	-5868
▁Cent	-5869
▁salt	-5870
▁electronic	-5871
▁Earth	-5872
ashes	-5873
▁advant	-5874
▁confused	-5875
▁maps	-5876
▁park	-5877
case	-5878
usi	-5879
isions	-5880
▁printing	-5881
▁Ext	-5882
▁shave	-5883
▁sac	-5884
▁behavior	-5885
osure	-5886
▁categ	-5887
▁formula	-5888
▁drinking	-5889
▁bargain	-5890
▁wisdom	-5891
▁univers	-5892
▁packs	-5893
▁AB	-5894
▁wo	-5895
▁fruit	-5896
▁flashlight	-5897
▁worthy	-5898
▁Bre	-5899
▁definately	-5900
pre	-5901
adem	-5902
list	-5903
▁marks	-5904
dow	-5905
▁themes	-5906
▁photography	-5907
ifting	-5908
▁dyn	-5909
▁mounting	-5910
▁customers	-5911
mod	-5912
▁rust	-5913
▁courage	-5914
▁Anyway	-5915
▁toss	-5916
▁drawback	-5917
▁veget	-5918
▁Tot	-5919
▁Us	-5920
▁accomp	-5921
lix	-5922
▁Nik	-5923
▁sucks	-5924
▁stable	-5925
asses	-5926
iel	-5927
▁velcro	-5928
▁street	-5929
▁Mot	-5930
▁opens	-5931
▁rules	-5932
iveness	-5933
weet	-5934
▁religion	-5935
▁hated	-5936
▁REC	-5937
ifi	-5938
▁oppos	-5939
▁unc	-5940
umbs	-5941
▁blog	-5942
▁21	-5943
▁ME	-5944
▁educational	-5945
uted	-5946
▁Park	-5947
▁mounted	-5948
ev	-5949
▁warning	-5950
▁clarity	-5951
▁noted	-5952
▁Son	-5953
▁Sad	-5954
▁dishes	-5955
neath	-5956
▁painful	-5957
▁45	-5958
▁32	-5959
▁rocks	-5960
▁dedic	-5961
▁boat	-5962
▁yesterday	-5963
▁dock	-5964
▁removing	-5965
▁Off	-5966
▁backup	-5967
▁colored	-5968
ether	-5969
▁resolution	-5970
▁connector	-5971
▁Art	-5972
▁bum	-5973
Some	-5974
▁Heart	-5975
▁hood	-5976
▁Note	-5977
▁stom	-5978
▁invent	-5979
▁fund	-5980
▁raised	-5981
▁seam	-5982
earing	-5983
rock	-5984
UM	-5985
▁upper	-5986
High	-5987
▁Mom	-5988
ait	-5989
▁cheaply	-5990
▁Bu	-5991
▁swing	-5992
Book	-5993
▁contemporary	-5994
▁compatible	-5995
▁Bas	-5996
ronics	-5997
▁Lar	-5998
Other	-5999
see	-6000
Any	-6001
▁anybody	-6002
▁towel	-6003
▁Didn	-6004
▁Hopefully	-6005
aks	-6006
via	-6007
alog	-6008
▁presentation	-6009
▁bluetooth	-6010
▁active	-6011
▁bringing	-6012
▁providing	-6013
fast	-6014
▁MUST	-6015
ERS	-6016
▁Better	-6017
▁increase	-6018
▁interpret	-6019
inyl	-6020
While	-6021
▁recharge	-6022
▁troub	-6023
▁blues	-6024
▁holster	-6025
▁greater	-6026
▁continued	-6027
▁Tim	-6028
▁toes	-6029
▁context	-6030
▁Game	-6031
▁penc	-6032
▁gaming	-6033
▁sci	-6034
born	-6035
utions	-6036
nels	-6037
▁masterpiece	-6038
▁causes	-6039
ribly	-6040
▁Ordered	-6041
▁fif	-6042
▁toddler	-6043
yes	-6044
▁dele	-6045
▁Charl	-6046
▁196	-6047
▁shine	-6048
▁Down	-6049
▁ripped	-6050
enc	-6051
AP	-6052
apping	-6053
▁mistakes	-6054
▁Luck	-6055
▁sleeve	-6056
▁hub	-6057
▁mysteries	-6058
iforn	-6059
▁demonstr	-6060
Pros	-6061
▁4.	-6062
▁elegant	-6063
")	-6064
great	-6065
▁GET	-6066
▁importantly	-6067
▁capacity	-6068
▁Res	-6069
▁Ty	-6070
▁McC	-6071
▁recommendation	-6072
asing	-6073
▁juice	-6074
▁Prime	-6075
▁Tex	-6076
itors	-6077
ulated	-6078
Up	-6079
anna	-6080
▁politics	-6081
▁por	-6082
▁impression	-6083
▁BEST	-6084
▁tail	-6085
▁victim	-6086
▁ipad	-6087
▁equally	-6088
▁appeared	-6089
teen	-6090
▁designs	-6091
▁remarkable	-6092
ented	-6093
▁flight	-6094
▁protectors	-6095
▁moisturi	-6096
alk	-6097
▁Ham	-6098
▁jewelry	-6099
▁inspiration	-6100
▁LOT	-6101
▁candy	-6102
▁enthusi	-6103
▁Bo	-6104
▁necklace	-6105
▁slot	-6106
apointed	-6107
▁underneath	-6108
▁computers	-6109
assion	-6110
gic	-6111
▁turner	-6112
▁camping	-6113
▁Happy	-6114
books	-6115
▁serves	-6116
▁mer	-6117
▁picks	-6118
kins	-6119
cription	-6120
▁accessible	-6121
▁shorts	-6122
▁shared	-6123
▁MO	-6124
ensions	-6125
▁Long	-6126
roll	-6127
▁calend	-6128
▁activities	-6129
▁squee	-6130
▁collar	-6131
▁legend	-6132
▁versat	-6133
▁Color	-6134
▁flaws	-6135
▁Which	-6136
▁Old	-6137
ERF	-6138
▁updated	-6139
ican	-6140
▁figures	-6141
▁Da	-6142
▁pra	-6143
▁wealth	-6144
ico	-6145
▁dangerous	-6146
▁furniture	-6147
▁Music	-6148
▁Jane	-6149
▁Ret	-6150
lers	-6151
▁lenses	-6152
▁ultimately	-6153
▁sung	-6154
ode	-6155
▁discs	-6156
▁Ter	-6157
▁deals	-6158
▁Pres	-6159
▁proud	-6160
▁niece	-6161
oph	-6162
/5	-6163
ishes	-6164
▁Especially	-6165
▁Right	-6166
▁tales	-6167
▁pal	-6168
▁laid	-6169
ums	-6170
▁sees	-6171
▁amp	-6172
▁tang	-6173
uick	-6174
▁diaper	-6175
ference	-6176
▁Hollywood	-6177
▁matches	-6178
especially	-6179
▁users	-6180
▁coverage	-6181
Well	-6182
▁scar	-6183
▁voices	-6184
▁Brother	-6185
ottom	-6186
▁poetry	-6187
▁allowing	-6188
▁internal	-6189
▁groups	-6190
▁Bad	-6191
▁LOVED	-6192
▁usb	-6193
▁North	-6194
▁degrees	-6195
▁MA	-6196
???	-6197
▁loaded	-6198
▁comprehensive	-6199
▁jam	-6200
▁served	-6201
▁apple	-6202
▁COM	-6203
▁resc	-6204
aybe	-6205
inder	-6206
▁depending	-6207
▁:(	-6208
outher	-6209
▁plants	-6210
▁DVDs	-6211
▁holiday	-6212
ACK	-6213
▁teaches	-6214
inate	-6215
comend	-6216
ifornia	-6217
life	-6218
▁protein	-6219
▁sooner	-6220
▁birds	-6221
osen	-6222
▁Ye	-6223
▁creep	-6224
▁arrange	-6225
▁Lou	-6226
attle	-6227
▁Sun	-6228
▁Sar	-6229
▁usage	-6230
ds	-6231
▁covering	-6232
▁)	-6233
▁Reg	-6234
▁fake	-6235
▁factor	-6236
▁Intern	-6237
▁concise	-6238
▁Story	-6239
▁padding	-6240
▁repeat	-6241
▁Dead	-6242
▁Reading	-6243
lines	-6244
▁talks	-6245
▁litter	-6246
▁yoga	-6247
▁Vol	-6248
▁tick	-6249
▁documentary	-6250
▁seven	-6251
▁Haw	-6252
▁securely	-6253
▁Baby	-6254
▁lotion	-6255
ech	-6256
rical	-6257
▁Worked	-6258
▁elim	-6259
▁Sand	-6260
▁tent	-6261
▁Came	-6262
▁pulls	-6263
▁Recommended	-6264
rome	-6265
▁tax	-6266
▁winner	-6267
have	-6268
▁limit	-6269
▁Arrived	-6270
eriously	-6271
▁conversation	-6272
▁cance	-6273
▁capture	-6274
ALL	-6275
▁....	-6276
▁quir	-6277
▁breeze	-6278
▁vari	-6279
▁Yet	-6280
▁DS	-6281
▁plugs	-6282
▁task	-6283
▁:-)	-6284
▁celebr	-6285
field	-6286
▁fancy	-6287
▁desper	-6288
▁bible	-6289
▁stone	-6290
▁regularly	-6291
oration	-6292
▁frustrated	-6293
▁mission	-6294
▁needing	-6295
▁chest	-6296
▁meal	-6297
▁pray	-6298
▁scope	-6299
00.	-6300
▁Such	-6301
▁readable	-6302
▁promise	-6303
mother	-6304
▁mask	-6305
▁babies	-6306
▁Ver	-6307
asonic	-6308
▁consistent	-6309
▁stroller	-6310
▁stops	-6311
▁wel	-6312
▁sizing	-6313
▁circumst	-6314
▁Dar	-6315
▁critical	-6316
inem	-6317
▁channel	-6318
ago	-6319
▁classes	-6320
▁analysis	-6321
ford	-6322
▁Gra	-6323
▁operate	-6324
▁purposes	-6325
▁Steve	-6326
/1	-6327
▁durability	-6328
▁tremend	-6329
ilet	-6330
reet	-6331
▁clothing	-6332
aver	-6333
igned	-6334
▁lit	-6335
Pro	-6336
▁Ult	-6337
▁youth	-6338
there	-6339
▁amb	-6340
udio	-6341
▁Mill	-6342
▁schol	-6343
▁motion	-6344
▁AA	-6345
ondon	-6346
▁distur	-6347
▁!!	-6348
TV	-6349
▁charming	-6350
AME	-6351
▁relief	-6352
sec	-6353
▁rice	-6354
▁$5	-6355
▁cow	-6356
▁Val	-6357
▁phen	-6358
▁tends	-6359
emon	-6360
isy	-6361
▁focused	-6362
▁Simple	-6363
▁Wood	-6364
▁drivers	-6365
▁vinyl	-6366
yer	-6367
iving	-6368
▁eager	-6369
▁ONLY	-6370
char	-6371
▁timer	-6372
▁goal	-6373
▁zoom	-6374
ires	-6375
▁suddenly	-6376
▁plans	-6377
▁hide	-6378
/10	-6379
▁protagonist	-6380
▁Spanish	-6381
▁nuts	-6382
▁Hor	-6383
▁unbelievable	-6384
sole	-6385
▁strings	-6386
▁hun	-6387
▁fragr	-6388
▁THEY	-6389
▁editor	-6390
▁flying	-6391
▁exceptional	-6392
▁checking	-6393
▁badly	-6394
▁joke	-6395
/2	-6396
attery	-6397
▁catchy	-6398
▁Jeff	-6399
▁IP	-6400
▁paran	-6401
hant	-6402
▁bracelet	-6403
▁elastic	-6404
AIN	-6405
▁ancient	-6406
▁highest	-6407
▁growth	-6408
▁buff	-6409
ME	-6410
▁pens	-6411
▁healing	-6412
▁Ant	-6413
▁evidence	-6414
uzz	-6415
lets	-6416
▁Mine	-6417
▁assume	-6418
▁director	-6419
AND	-6420
▁Bro	-6421
ials	-6422
▁Are	-6423
▁NY	-6424
▁shocked	-6425
place	-6426
▁excess	-6427
▁automatically	-6428
▁suc	-6429
90	-6430
▁education	-6431
▁extensive	-6432
ok	-6433
esy	-6434
▁actor	-6435
▁independ	-6436
▁contrast	-6437
▁Save	-6438
▁secrets	-6439
▁sne	-6440
col	-6441
At	-6442
▁AD	-6443
uary	-6444
raction	-6445
onest	-6446
▁memorable	-6447
▁brothers	-6448
▁outlet	-6449
cul	-6450
▁Received	-6451
cles	-6452
▁suggestions	-6453
▁witty	-6454
▁therap	-6455
acher	-6456
bal	-6457
▁esp	-6458
▁Despite	-6459
▁AR	-6460
▁Po	-6461
▁instant	-6462
▁commentary	-6463
▁humorous	-6464
▁adequate	-6465
▁("	-6466
▁standards	-6467
▁mechanism	-6468
▁tor	-6469
▁finan	-6470
elly	-6471
▁lifetime	-6472
onnect	-6473
▁brack	-6474
▁Unlike	-6475
▁See	-6476
▁sources	-6477
▁width	-6478
▁solved	-6479
▁prepare	-6480
▁marketing	-6481
flix	-6482
▁attempts	-6483
▁shell	-6484
▁reccomend	-6485
▁chicken	-6486
▁roller	-6487
▁(2	-6488
icting	-6489
▁Couldn	-6490
outhern	-6491
▁fellow	-6492
▁gig	-6493
▁plane	-6494
▁Martin	-6495
anch	-6496
▁hooks	-6497
▁gall	-6498
▁threat	-6499
▁explore	-6500
cript	-6501
▁jar	-6502
▁hosp	-6503
▁entertained	-6504
▁basics	-6505
▁tack	-6506
▁split	-6507
▁cleaned	-6508
▁Turn	-6509
eem	-6510
▁Jon	-6511
▁2-	-6512
▁comfortably	-6513
amps	-6514
▁structure	-6515
▁UP	-6516
▁cancer	-6517
▁misle	-6518
actly	-6519
viously	-6520
▁desktop	-6521
▁interface	-6522
▁cardboard	-6523
▁Hal	-6524
▁pound	-6525
3)	-6526
▁bump	-6527
▁literary	-6528
▁Pot	-6529
▁epic	-6530
▁connections	-6531
▁IF	-6532
▁walls	-6533
iently	-6534
▁22	-6535
inks	-6536
▁captured	-6537
▁Doesn	-6538
▁guarant	-6539
▁End	-6540
▁pouch	-6541
unate	-6542
▁Hen	-6543
▁Count	-6544
itching	-6545
▁letting	-6546
bell	-6547
ault	-6548
1)	-6549
▁addictive	-6550
▁Hist	-6551
ban	-6552
▁gam	-6553
▁London	-6554
incess	-6555
▁Cath	-6556
▁ank	-6557
gie	-6558
▁captures	-6559
▁Pal	-6560
▁Op	-6561
▁thumb	-6562
▁mysterious	-6563
▁layer	-6564
▁Hun	-6565
▁provo	-6566
▁floors	-6567
▁excit	-6568
▁associ	-6569
▁relevant	-6570
▁Dream	-6571
▁Cat	-6572
▁sticker	-6573
▁advantage	-6574
▁outdoor	-6575
▁fails	-6576
▁apartment	-6577
▁Wil	-6578
▁Took	-6579
iana	-6580
TS	-6581
▁humid	-6582
ashed	-6583
▁react	-6584
▁attend	-6585
bu	-6586
▁restaur	-6587
▁80'	-6588
UCT	-6589
▁magical	-6590
▁dozen	-6591
▁ugly	-6592
▁Author	-6593
reek	-6594
3,	-6595
▁views	-6596
▁Ac	-6597
▁stomach	-6598
▁Sky	-6599
▁Sus	-6600
▁channels	-6601
▁therm	-6602
▁punch	-6603
▁strip	-6604
▁Take	-6605
bet	-6606
▁contents	-6607
▁hundreds	-6608
ountain	-6609
▁enter	-6610
▁serving	-6611
▁avid	-6612
▁judge	-6613
▁odor	-6614
▁brushes	-6615
cohol	-6616
▁teens	-6617
▁Gri	-6618
▁touched	-6619
▁explaining	-6620
▁California	-6621
aring	-6622
▁extras	-6623
▁offering	-6624
▁35	-6625
natural	-6626
▁causing	-6627
▁YOUR	-6628
nov	-6629
▁Texas	-6630
▁methods	-6631
although	-6632
▁Pack	-6633
Sh	-6634
▁pil	-6635
▁hesitate	-6636
▁waterproof	-6637
▁photographs	-6638
▁decades	-6639
▁Small	-6640
▁root	-6641
▁sons	-6642
▁cooler	-6643
▁speaking	-6644
▁unw	-6645
▁teenage	-6646
▁chemistry	-6647
▁mental	-6648
mail	-6649
▁Van	-6650
▁meeting	-6651
▁struggling	-6652
▁scratched	-6653
telling	-6654
▁king	-6655
▁sleek	-6656
▁Bur	-6657
▁cash	-6658
▁combined	-6659
▁understood	-6660
▁sites	-6661
▁humans	-6662
▁manages	-6663
ashing	-6664
▁Watch	-6665
▁wider	-6666
Am	-6667
▁contribut	-6668
▁Using	-6669
▁island	-6670
▁vitam	-6671
marily	-6672
ifying	-6673
▁LIKE	-6674
bert	-6675
▁harm	-6676
estyle	-6677
▁EN	-6678
▁attachment	-6679
▁blanket	-6680
De	-6681
▁confidence	-6682
▁flawlessly	-6683
▁fram	-6684
▁Ry	-6685
▁Gen	-6686
▁drawing	-6687
▁wig	-6688
▁freedom	-6689
▁LCD	-6690
agers	-6691
alse	-6692
▁Kat	-6693
▁lasting	-6694
▁Mer	-6695
▁treats	-6696
▁Beat	-6697
▁tire	-6698
▁blown	-6699
▁pros	-6700
▁innoc	-6701
▁config	-6702
▁precise	-6703
▁Without	-6704
▁according	-6705
▁planet	-6706
▁values	-6707
anta	-6708
aturally	-6709
Love	-6710
▁nicer	-6711
▁NEVER	-6712
▁contained	-6713
▁grate	-6714
▁bang	-6715
alling	-6716
OUGH	-6717
noon	-6718
▁detect	-6719
▁Shar	-6720
▁guard	-6721
▁sched	-6722
OK	-6723
▁titles	-6724
▁Fort	-6725
▁identify	-6726
▁makeup	-6727
Fi	-6728
▁Rad	-6729
▁accidentally	-6730
▁adop	-6731
▁Jones	-6732
▁silicone	-6733
▁MUCH	-6734
▁balanced	-6735
▁States	-6736
▁blast	-6737
▁inj	-6738
▁rig	-6739
▁crow	-6740
▁decisions	-6741
▁benefits	-6742
▁BB	-6743
▁amazingly	-6744
▁earbud	-6745
▁CO	-6746
ographer	-6747
oms	-6748
uate	-6749
▁surprises	-6750
▁shake	-6751
▁twenty	-6752
▁TIM	-6753
from	-6754
▁acqu	-6755
▁Cra	-6756
▁bound	-6757
don	-6758
▁primary	-6759
▁polish	-6760
▁sensor	-6761
rocery	-6762
▁burned	-6763
aph	-6764
▁CL	-6765
▁loop	-6766
▁succe	-6767
▁compartment	-6768
▁prepar	-6769
▁plat	-6770
▁Probably	-6771
▁vibrant	-6772
▁Vict	-6773
▁routine	-6774
▁Spr	-6775
▁majority	-6776
▁Mex	-6777
▁doors	-6778
▁phr	-6779
▁resid	-6780
▁everybody	-6781
mosp	-6782
▁breast	-6783
▁calendar	-6784
gun	-6785
▁cru	-6786
▁relaxing	-6787
▁conver	-6788
▁besides	-6789
anger	-6790
▁beginners	-6791
▁substant	-6792
▁Through	-6793
▁toilet	-6794
▁supporting	-6795
▁panel	-6796
▁dise	-6797
berg	-6798
▁killing	-6799
Ex	-6800
▁finishing	-6801
▁scientific	-6802
▁studies	-6803
▁washer	-6804
▁JUST	-6805
ira	-6806
IP	-6807
tered	-6808
▁frag	-6809
▁shade	-6810
▁math	-6811
▁Hell	-6812
ching	-6813
▁extension	-6814
▁angry	-6815
▁phenomen	-6816
▁western	-6817
/4	-6818
▁nights	-6819
▁records	-6820
▁excitement	-6821
▁tad	-6822
▁drain	-6823
▁theater	-6824
▁memo	-6825
bie	-6826
▁rhyth	-6827
▁prime	-6828
▁ups	-6829
▁cabinet	-6830
mond	-6831
▁sounding	-6832
▁Under	-6833
cend	-6834
▁enlight	-6835
▁alike	-6836
▁organic	-6837
▁host	-6838
▁Put	-6839
▁shirts	-6840
▁About	-6841
▁sin	-6842
▁captivating	-6843
▁forgotten	-6844
▁oz	-6845
▁Bluetooth	-6846
▁applications	-6847
core	-6848
▁Stephen	-6849
▁intrigue	-6850
,,	-6851
▁notch	-6852
bow	-6853
▁delighted	-6854
▁occasional	-6855
▁trade	-6856
anda	-6857
▁wax	-6858
nam	-6859
hesive	-6860
▁recieved	-6861
▁lacks	-6862
▁Germ	-6863
screen	-6864
▁puppy	-6865
▁rend	-6866
▁discus	-6867
▁calling	-6868
▁treasure	-6869
eral	-6870
▁Church	-6871
▁rememb	-6872
▁Always	-6873
fess	-6874
abeth	-6875
aning	-6876
▁rac	-6877
IST	-6878
▁headphone	-6879
ville	-6880
▁pills	-6881
▁Should	-6882
▁DON	-6883
agraph	-6884
▁mi	-6885
uminum	-6886
▁Chris	-6887
▁OUT	-6888
▁purchases	-6889
▁commercial	-6890
.(	-6891
▁estab	-6892
after	-6893
▁Kn	-6894
▁True	-6895
▁soooo	-6896
▁Min	-6897
▁blind	-6898
▁cords	-6899
▁bubble	-6900
▁Haven	-6901
inal	-6902
▁circumstances	-6903
▁carried	-6904
bra	-6905
▁cheese	-6906
▁reset	-6907
▁menu	-6908
rigin	-6909
▁whatso	-6910
▁bot	-6911
▁unne	-6912
▁cous	-6913
amily	-6914
▁burning	-6915
▁grandch	-6916
▁artwork	-6917
▁traged	-6918
▁grocery	-6919
2,	-6920
▁grace	-6921
UP	-6922
▁Sorry	-6923
▁liner	-6924
▁wow	-6925
oween	-6926
alls	-6927
▁jer	-6928
▁treated	-6929
▁Ma	-6930
sha	-6931
▁cycle	-6932
stra	-6933
▁$100	-6934
▁dramatic	-6935
▁flick	-6936
▁cried	-6937
▁ourselves	-6938
▁typically	-6939
▁civil	-6940
▁knob	-6941
▁foundation	-6942
va	-6943
▁speaks	-6944
▁afternoon	-6945
Highly	-6946
▁Think	-6947
erve	-6948
bi	-6949
▁Americans	-6950
oh	-6951
▁primarily	-6952
ethe	-6953
▁regardless	-6954
▁landsc	-6955
▁WOW	-6956
▁intern	-6957
▁adjustment	-6958
Wh	-6959
▁Eliz	-6960
▁cit	-6961
▁whatsoever	-6962
▁bless	-6963
▁lies	-6964
▁Rom	-6965
▁compilation	-6966
▁capable	-6967
▁caut	-6968
▁staying	-6969
▁aim	-6970
▁management	-6971
▁opener	-6972
▁Check	-6973
bro	-6974
▁empha	-6975
▁2,	-6976
▁slides	-6977
▁sticking	-6978
stop	-6979
hop	-6980
▁Fre	-6981
▁brew	-6982
oved	-6983
▁atmosp	-6984
▁switched	-6985
▁efforts	-6986
ogether	-6987
▁Jackson	-6988
▁dying	-6989
▁Item	-6990
▁outer	-6991
▁detective	-6992
▁prove	-6993
▁confident	-6994
▁Grant	-6995
ummer	-6996
ours	-6997
▁equal	-6998
▁extraord	-6999
▁orche	-7000
ooks	-7001
▁matters	-7002
olves	-7003
IA	-7004
▁500	-7005
▁microw	-7006
▁releases	-7007
▁universe	-7008
▁drawer	-7009
▁knee	-7010
▁Review	-7011
▁Tod	-7012
▁surely	-7013
▁Thing	-7014
▁alcohol	-7015
▁repetitive	-7016
▁MORE	-7017
▁dried	-7018
▁attitude	-7019
▁convin	-7020
▁joint	-7021
▁Dig	-7022
▁stove	-7023
▁desired	-7024
ueen	-7025
:1.	-7026
arks	-7027
▁companion	-7028
▁flag	-7029
▁Rose	-7030
luding	-7031
▁tact	-7032
▁survi	-7033
▁memoir	-7034
▁functionality	-7035
▁loos	-7036
▁translation	-7037
▁harsh	-7038
▁closet	-7039
▁experiment	-7040
▁paragraph	-7041
iously	-7042
when	-7043
▁Low	-7044
anship	-7045
athy	-7046
▁owners	-7047
▁Person	-7048
ifier	-7049
▁overview	-7050
▁Exactly	-7051
▁wipe	-7052
▁saves	-7053
▁reception	-7054
arian	-7055
▁heaven	-7056
▁$30	-7057
▁cu	-7058
▁Cost	-7059
DS	-7060
▁Next	-7061
▁WAY	-7062
▁misleading	-7063
▁theat	-7064
aga	-7065
▁heck	-7066
▁opinions	-7067
▁plots	-7068
bon	-7069
love	-7070
▁United	-7071
▁brut	-7072
▁perman	-7073
▁PROD	-7074
▁seeking	-7075
▁concent	-7076
▁glimp	-7077
▁differences	-7078
▁sou	-7079
▁suffering	-7080
▁pans	-7081
▁inspirational	-7082
▁Wat	-7083
▁Google	-7084
vere	-7085
▁visible	-7086
▁rive	-7087
▁Halloween	-7088
▁Real	-7089
▁Three	-7090
ront	-7091
▁Hot	-7092
▁sea	-7093
▁$50	-7094
▁facing	-7095
lying	-7096
▁glob	-7097
rition	-7098
▁favour	-7099
▁Jud	-7100
▁Men	-7101
▁guid	-7102
▁Water	-7103
ato	-7104
▁philosophy	-7105
▁worthwhile	-7106
sized	-7107
:)	-7108
▁forgot	-7109
▁paranormal	-7110
▁million	-7111
▁gau	-7112
▁Er	-7113
▁liber	-7114
iblical	-7115
▁opposite	-7116
icated	-7117
▁Dell	-7118
▁profound	-7119
▁shipment	-7120
parent	-7121
▁gripping	-7122
▁incom	-7123
▁Must	-7124
▁sport	-7125
▁allerg	-7126
onge	-7127
▁Tech	-7128
▁flavors	-7129
▁applying	-7130
▁tripod	-7131
.'	-7132
▁boss	-7133
arter	-7134
▁UN	-7135
▁bond	-7136
▁searched	-7137
▁jobs	-7138
▁combo	-7139
▁exposed	-7140
▁fallen	-7141
▁beware	-7142
▁THAN	-7143
▁Plan	-7144
▁steal	-7145
Com	-7146
priced	-7147
▁classics	-7148
▁Angel	-7149
adget	-7150
▁zombie	-7151
▁teachers	-7152
▁preferred	-7153
▁wished	-7154
▁Mike	-7155
▁fulf	-7156
▁ordinary	-7157
▁powers	-7158
▁pod	-7159
▁fourth	-7160
▁Gener	-7161
▁300	-7162
▁sandals	-7163
da	-7164
▁1/4	-7165
▁explanations	-7166
▁sym	-7167
▁Sk	-7168
inge	-7169
▁2-3	-7170
▁provoking	-7171
▁nove	-7172
▁determined	-7173
▁Sn	-7174
ppers	-7175
▁opposed	-7176
OC	-7177
▁walks	-7178
▁fairy	-7179
▁filling	-7180
▁bank	-7181
▁messages	-7182
porate	-7183
▁grey	-7184
PR	-7185
▁crew	-7186
▁lie	-7187
bur	-7188
forward	-7189
▁importance	-7190
acular	-7191
▁sentence	-7192
▁handling	-7193
▁partner	-7194
▁definite	-7195
▁survival	-7196
▁false	-7197
▁simpl	-7198
▁throwing	-7199
▁ladies	-7200
▁hospital	-7201
▁stickers	-7202
xture	-7203
▁!!!	-7204
▁lifestyle	-7205
▁tires	-7206
▁intrigued	-7207
▁pant	-7208
▁technique	-7209
▁gray	-7210
▁painting	-7211
▁criticism	-7212
▁logo	-7213
▁blu	-7214
▁tasty	-7215
uman	-7216
▁influence	-7217
▁Panasonic	-7218
▁Chic	-7219
▁principles	-7220
▁posted	-7221
isa	-7222
▁policy	-7223
▁overcome	-7224
othing	-7225
▁Nick	-7226
▁classical	-7227
▁Ever	-7228
▁dash	-7229
▁golf	-7230
▁compliment	-7231
▁returns	-7232
▁PRODUCT	-7233
▁Italian	-7234
▁Shipping	-7235
▁torn	-7236
▁Master	-7237
▁helmet	-7238
▁blocks	-7239
▁consistently	-7240
▁lin	-7241
▁stap	-7242
▁forces	-7243
▁Interesting	-7244
▁resources	-7245
▁unnecess	-7246
▁softer	-7247
▁purs	-7248
▁chips	-7249
ares	-7250
▁subjects	-7251
▁BL	-7252
▁Mother	-7253
▁draws	-7254
BS	-7255
▁cinem	-7256
▁Du	-7257
▁sisters	-7258
▁Flor	-7259
▁symp	-7260
▁SE	-7261
▁failure	-7262
▁Far	-7263
▁dual	-7264
▁interviews	-7265
▁imagin	-7266
▁thoughtful	-7267
mit	-7268
▁Sher	-7269
▁asleep	-7270
25	-7271
▁leader	-7272
ontin	-7273
▁360	-7274
▁Mil	-7275
▁plates	-7276
▁disturbing	-7277
▁zip	-7278
▁East	-7279
▁los	-7280
Every	-7281
▁crafted	-7282
▁pushing	-7283
itech	-7284
▁Wars	-7285
▁Law	-7286
▁christmas	-7287
▁financial	-7288
aiting	-7289
▁thinner	-7290
▁conditioner	-7291
▁Victor	-7292
▁mug	-7293
▁approx	-7294
▁mp	-7295
▁quant	-7296
▁fluff	-7297
▁fragrance	-7298
▁Sarah	-7299
▁enjoyment	-7300
▁serv	-7301
▁pregnant	-7302
▁scrub	-7303
▁straw	-7304
▁Keeps	-7305
atisf	-7306
▁descript	-7307
Oh	-7308
▁Dog	-7309
First	-7310
ails	-7311
Can	-7312
▁brows	-7313
▁Found	-7314
▁marvel	-7315
win	-7316
ique	-7317
▁signs	-7318
▁Box	-7319
▁OS	-7320
icked	-7321
▁bugs	-7322
rete	-7323
▁electronics	-7324
.2.	-7325
▁LOVES	-7326
▁nu	-7327
▁surg	-7328
▁acceptable	-7329
lyn	-7330
▁William	-7331
▁workouts	-7332
▁appealing	-7333
▁dumb	-7334
▁necessarily	-7335
ideo	-7336
▁prison	-7337
▁instance	-7338
▁chosen	-7339
▁baking	-7340
▁fict	-7341
▁ultimate	-7342
▁Kit	-7343
ubl	-7344
▁Den	-7345
▁shares	-7346
▁terror	-7347
▁rolling	-7348
▁unpl	-7349
pir	-7350
▁vast	-7351
▁ec	-7352
TC	-7353
▁baseball	-7354
▁stead	-7355
▁programming	-7356
▁agg	-7357
▁individuals	-7358
▁operation	-7359
▁wooden	-7360
▁Internet	-7361
irgin	-7362
▁aluminum	-7363
▁touches	-7364
uten	-7365
▁groo	-7366
▁choo	-7367
▁emerg	-7368
▁crystal	-7369
▁happily	-7370
▁Nikon	-7371
▁faces	-7372
gger	-7373
HS	-7374
▁teenager	-7375
▁hesitant	-7376
▁tort	-7377
arts	-7378
unky	-7379
enced	-7380
▁outfit	-7381
▁liking	-7382
▁intu	-7383
▁diapers	-7384
icted	-7385
▁ted	-7386
▁dies	-7387
▁HU	-7388
▁interior	-7389
▁stack	-7390
bits	-7391
▁department	-7392
atin	-7393
step	-7394
▁developing	-7395
▁3.5	-7396
▁versatile	-7397
▁mobile	-7398
▁Otter	-7399
▁biography	-7400
otion	-7401
▁Young	-7402
▁pic	-7403
lined	-7404
▁DE	-7405
▁moral	-7406
▁wrink	-7407
▁delicate	-7408
rick	-7409
then	-7410
▁Guide	-7411
▁activity	-7412
▁painted	-7413
▁upl	-7414
▁accomplish	-7415
po	-7416
▁scared	-7417
aire	-7418
▁testing	-7419
▁describing	-7420
azy	-7421
▁engaged	-7422
▁spir	-7423
▁coins	-7424
▁distinct	-7425
▁Lind	-7426
▁gadget	-7427
▁academ	-7428
▁generic	-7429
▁Win	-7430
▁drinks	-7431
▁Free	-7432
▁overnight	-7433
▁Harr	-7434
▁decides	-7435
▁storm	-7436
▁shred	-7437
▁distort	-7438
water	-7439
▁hey	-7440
▁Dep	-7441
▁trial	-7442
▁Stars	-7443
▁bolts	-7444
cience	-7445
▁Call	-7446
isco	-7447
▁monster	-7448
▁absorb	-7449
▁locally	-7450
▁Actually	-7451
▁Kate	-7452
▁borrow	-7453
lements	-7454
▁tops	-7455
▁finest	-7456
▁GO	-7457
▁Thought	-7458
▁lists	-7459
▁poems	-7460
▁Nat	-7461
▁ties	-7462
▁Android	-7463
▁List	-7464
ooper	-7465
▁Port	-7466
▁happiness	-7467
▁microwave	-7468
▁organization	-7469
▁$4	-7470
▁Word	-7471
▁static	-7472
▁completed	-7473
▁strips	-7474
▁revealed	-7475
itute	-7476
..."	-7477
▁private	-7478
▁Fantastic	-7479
▁pushed	-7480
Tr	-7481
▁audi	-7482
▁snack	-7483
Update	-7484
▁shaving	-7485
gent	-7486
▁farm	-7487
▁identical	-7488
pass	-7489
▁leaks	-7490
acles	-7491
▁Run	-7492
▁mature	-7493
▁carries	-7494
▁protecting	-7495
▁matching	-7496
▁yeah	-7497
▁convinced	-7498
▁chip	-7499
iche	-7500
▁Western	-7501
▁neighb	-7502
▁portrayed	-7503
▁Elizabeth	-7504
▁seemingly	-7505
▁cliff	-7506
▁entry	-7507
▁Aust	-7508
▁suitable	-7509
▁mile	-7510
▁cookies	-7511
▁Austr	-7512
▁guns	-7513
.1	-7514
▁strategy	-7515
▁loyal	-7516
▁FROM	-7517
corn	-7518
▁overwhelming	-7519
aylor	-7520
▁rein	-7521
▁envelop	-7522
DATE	-7523
▁powered	-7524
▁goodness	-7525
▁meals	-7526
▁grass	-7527
utter	-7528
ounce	-7529
only	-7530
▁virtually	-7531
ressing	-7532
usive	-7533
▁laser	-7534
▁cares	-7535
asm	-7536
▁studying	-7537
▁hunting	-7538
store	-7539
▁folk	-7540
▁poster	-7541
▁learns	-7542
▁prints	-7543
5,	-7544
▁earbuds	-7545
▁Cook	-7546
aren	-7547
ometer	-7548
▁sliding	-7549
▁pics	-7550
uous	-7551
UE	-7552
▁2010	-7553
gen	-7554
▁Wall	-7555
▁Microsoft	-7556
erial	-7557
▁Mod	-7558
OTH	-7559
▁backing	-7560
ili	-7561
atory	-7562
power	-7563
▁performs	-7564
add	-7565
▁Sund	-7566
etheless	-7567
▁Comm	-7568
▁picky	-7569
pecial	-7570
happy	-7571
▁towels	-7572
▁DOES	-7573
▁reward	-7574
▁Rain	-7575
▁sorts	-7576
▁advise	-7577
▁classroom	-7578
▁dropping	-7579
zes	-7580
▁Battery	-7581
OUT	-7582
uation	-7583
▁welcome	-7584
vity	-7585
▁Hand	-7586
▁efficient	-7587
▁Face	-7588
▁existing	-7589
▁WHAT	-7590
▁dedicated	-7591
▁accounts	-7592
▁quotes	-7593
Do	-7594
▁machines	-7595
▁Phot	-7596
▁reviewed	-7597
Would	-7598
▁tragedy	-7599
▁reput	-7600
▁accuracy	-7601
▁Netflix	-7602
▁Acc	-7603
▁ID	-7604
▁stations	-7605
▁Florida	-7606
▁seek	-7607
▁WOULD	-7608
▁utter	-7609
▁packing	-7610
▁reduce	-7611
▁humanity	-7612
non	-7613
▁reaction	-7614
▁unlock	-7615
ruction	-7616
▁shaped	-7617
▁lap	-7618
▁Give	-7619
▁cloud	-7620
▁Okay	-7621
▁articles	-7622
▁Moon	-7623
▁nasty	-7624
▁portra	-7625
▁glued	-7626
▁lic	-7627
▁slots	-7628
▁HIGH	-7629
▁Imp	-7630
▁bitter	-7631
Con	-7632
▁Carol	-7633
lbs	-7634
▁gate	-7635
▁practically	-7636
▁TIME	-7637
▁Live	-7638
gging	-7639
▁sings	-7640
▁laund	-7641
ESOME	-7642
▁Aut	-7643
▁util	-7644
acc	-7645
▁scenar	-7646
▁handled	-7647
pson	-7648
▁wrench	-7649
▁tightly	-7650
▁Dad	-7651
▁grasp	-7652
▁asks	-7653
▁boost	-7654
▁Dri	-7655
ensity	-7656
▁sleeves	-7657
lar	-7658
▁eggs	-7659
▁Bat	-7660
▁descriptive	-7661
▁suffer	-7662
▁patient	-7663
▁unknown	-7664
▁homes	-7665
▁focuses	-7666
▁Touch	-7667
▁2000	-7668
ublic	-7669
uits	-7670
▁observ	-7671
▁budd	-7672
obb	-7673
oustic	-7674
theless	-7675
▁illustrated	-7676
▁tied	-7677
▁heater	-7678
▁THEM	-7679
▁gameplay	-7680
▁Matt	-7681
▁talked	-7682
▁threads	-7683
▁Dire	-7684
▁directed	-7685
▁NOW	-7686
▁Hill	-7687
▁battles	-7688
onestly	-7689
▁sealed	-7690
eding	-7691
▁textbook	-7692
reading	-7693
▁Bon	-7694
▁frustration	-7695
▁bun	-7696
▁disease	-7697
▁locations	-7698
▁frank	-7699
▁links	-7700
▁wondered	-7701
▁Henry	-7702
▁sav	-7703
▁Trans	-7704
▁Luc	-7705
gels	-7706
▁implement	-7707
▁connecting	-7708
sl	-7709
▁;)	-7710
▁effectively	-7711
istics	-7712
▁EVER	-7713
▁calories	-7714
angle	-7715
lder	-7716
▁bold	-7717
▁walked	-7718
▁tighten	-7719
▁feedback	-7720
▁vary	-7721
▁labels	-7722
▁bod	-7723
▁gay	-7724
▁BR	-7725
▁Anne	-7726
▁nowhere	-7727
itches	-7728
▁suspenseful	-7729
▁quirky	-7730
▁mesh	-7731
den	-7732
PL	-7733
▁transition	-7734
▁Tried	-7735
▁disag	-7736
▁Univers	-7737
orses	-7738
▁Test	-7739
▁assembled	-7740
works	-7741
nie	-7742
▁shift	-7743
▁forms	-7744
▁compassion	-7745
▁symb	-7746
▁rise	-7747
▁DID	-7748
lon	-7749
thy	-7750
▁summary	-7751
▁Det	-7752
▁dancing	-7753
▁recom	-7754
▁Sal	-7755
▁MAN	-7756
nes	-7757
▁nutrition	-7758
about	-7759
▁roots	-7760
idays	-7761
word	-7762
▁magnetic	-7763
▁conduct	-7764
▁LP	-7765
iams	-7766
▁moder	-7767
▁volumes	-7768
▁documents	-7769
▁Catholic	-7770
▁shelves	-7771
▁minds	-7772
▁trib	-7773
▁dispos	-7774
▁football	-7775
mma	-7776
▁upside	-7777
▁thickness	-7778
▁eth	-7779
▁grandchildren	-7780
▁photographer	-7781
▁drying	-7782
force	-7783
somet	-7784
▁Viet	-7785
▁DC	-7786
▁Whether	-7787
▁paperback	-7788
▁sauce	-7789
ifer	-7790
▁engross	-7791
▁Chicago	-7792
inch	-7793
▁toler	-7794
▁microphone	-7795
▁vert	-7796
ibilities	-7797
▁raise	-7798
▁Hy	-7799
iser	-7800
▁seeds	-7801
▁blur	-7802
iot	-7803
▁African	-7804
ception	-7805
▁Seriously	-7806
▁amusing	-7807
▁PERF	-7808
▁Top	-7809
Even	-7810
▁gang	-7811
▁praise	-7812
▁beliefs	-7813
▁Brand	-7814
▁aid	-7815
achel	-7816
kind	-7817
▁encounter	-7818
▁grateful	-7819
▁Rev	-7820
▁components	-7821
▁naturally	-7822
Wor	-7823
▁updates	-7824
▁Full	-7825
▁thumbs	-7826
▁Gab	-7827
▁legal	-7828
▁instruments	-7829
▁CON	-7830
▁Paris	-7831
▁combat	-7832
▁ic	-7833
▁seg	-7834
▁couch	-7835
▁Drag	-7836
▁closely	-7837
▁noisy	-7838
▁ruined	-7839
▁arrival	-7840
▁2013	-7841
▁addicted	-7842
▁fond	-7843
ota	-7844
▁deserve	-7845
oty	-7846
▁tragic	-7847
father	-7848
umbled	-7849
ITE	-7850
▁court	-7851
▁History	-7852
▁Wild	-7853
▁profile	-7854
acement	-7855
▁Father	-7856
▁70'	-7857
eness	-7858
▁Mem	-7859
▁essentially	-7860
▁intellect	-7861
▁differently	-7862
▁advance	-7863
!!!!!!	-7864
▁hiking	-7865
white	-7866
▁cultural	-7867
▁layout	-7868
▁Vel	-7869
▁ya	-7870
▁escap	-7871
▁chairs	-7872
▁rug	-7873
cre	-7874
▁manip	-7875
▁Dev	-7876
▁cheesy	-7877
breaking	-7878
▁rin	-7879
▁sucked	-7880
ucks	-7881
haust	-7882
▁sadly	-7883
▁passing	-7884
▁spectacular	-7885
▁Cute	-7886
▁Stone	-7887
▁wonders	-7888
▁grandmother	-7889
▁starter	-7890
▁warned	-7891
ARD	-7892
▁acts	-7893
▁extraordinary	-7894
▁discount	-7895
mission	-7896
▁patience	-7897
Read	-7898
zed	-7899
▁Di	-7900
▁defect	-7901
▁hitting	-7902
IND	-7903
▁Mars	-7904
▁separately	-7905
▁innov	-7906
▁convenience	-7907
▁fictional	-7908
▁damn	-7909
hearted	-7910
REE	-7911
▁profession	-7912
▁Mal	-7913
▁dump	-7914
▁surgery	-7915
▁stitching	-7916
▁sque	-7917
▁immense	-7918
▁Enjoyed	-7919
▁drugs	-7920
▁Fa	-7921
▁grammar	-7922
▁spell	-7923
▁addicting	-7924
minal	-7925
▁WWII	-7926
▁Within	-7927
▁unfold	-7928
▁fauc	-7929
▁maxim	-7930
▁witness	-7931
▁chart	-7932
▁dissapointed	-7933
▁Rel	-7934
▁Franc	-7935
ressive	-7936
sell	-7937
▁AWESOME	-7938
rec	-7939
▁weapons	-7940
▁heroes	-7941
▁diction	-7942
▁tong	-7943
▁overlook	-7944
▁Charles	-7945
▁central	-7946
▁Ell	-7947
▁HE	-7948
▁dislike	-7949
eria	-7950
SD	-7951
▁gifted	-7952
▁Creat	-7953
▁tricky	-7954
▁buds	-7955
long	-7956
▁worthless	-7957
size	-7958
▁slower	-7959
Although	-7960
▁Washing	-7961
▁trailer	-7962
▁dialog	-7963
▁serial	-7964
▁shield	-7965
▁rooms	-7966
▁Jewish	-7967
▁classy	-7968
urance	-7969
▁remembered	-7970
oops	-7971
▁Eric	-7972
▁unnecessary	-7973
▁Tur	-7974
resso	-7975
▁Garmin	-7976
▁doct	-7977
▁coating	-7978
▁laughs	-7979
▁Origin	-7980
CA	-7981
▁bin	-7982
▁Wii	-7983
▁sheer	-7984
4,	-7985
function	-7986
▁demand	-7987
.......	-7988
▁guides	-7989
gust	-7990
▁objects	-7991
▁Christians	-7992
aturing	-7993
cho	-7994
▁countries	-7995
unes	-7996
▁Exp	-7997
▁emotionally	-7998
▁platform	-7999
▁thousands	-8000
ping	-8001
▁disconnect	-8002
bar	-8003
▁rushed	-8004
▁terribly	-8005
▁Indian	-8006
▁collector	-8007
▁Lew	-8008
▁proves	-8009
▁gauge	-8010
▁periods	-8011
▁nation	-8012
▁carrier	-8013
▁Simply	-8014
▁PO	-8015
AB	-8016
ista	-8017
▁Death	-8018
▁Band	-8019
rol	-8020
▁School	-8021
▁tests	-8022
▁semi	-8023
▁tablets	-8024
▁Island	-8025
▁recognized	-8026
▁sync	-8027
▁trees	-8028
▁mountain	-8029
icky	-8030
▁dated	-8031
▁heal	-8032
▁significantly	-8033
▁flap	-8034
udos	-8035
▁hints	-8036
▁faced	-8037
▁tables	-8038
▁36	-8039
full	-8040
▁grows	-8041
1,	-8042
75	-8043
▁listing	-8044
etic	-8045
▁flowers	-8046
oz	-8047
▁diagn	-8048
▁Dave	-8049
▁Germany	-8050
▁consequ	-8051
▁UK	-8052
▁household	-8053
▁index	-8054
▁Jess	-8055
▁caring	-8056
▁roles	-8057
▁nerv	-8058
▁Spirit	-8059
stream	-8060
▁pins	-8061
▁incorrect	-8062
▁Cole	-8063
▁HUGE	-8064
▁Something	-8065
▁typing	-8066
▁pointed	-8067
▁clients	-8068
▁popped	-8069
▁outdo	-8070
▁optim	-8071
▁occasion	-8072
▁personalities	-8073
▁closing	-8074
▁Sub	-8075
▁fragile	-8076
▁haunting	-8077
ba	-8078
▁brighter	-8079
ologist	-8080
▁laundry	-8081
ulting	-8082
▁foreign	-8083
▁messy	-8084
▁Almost	-8085
▁adhesive	-8086
▁bothered	-8087
▁prayer	-8088
▁Head	-8089
▁pul	-8090
▁Taylor	-8091
▁None	-8092
▁MS	-8093
▁2012	-8094
▁tabs	-8095
▁Williams	-8096
▁blender	-8097
▁substantial	-8098
live	-8099
aign	-8100
▁Four	-8101
▁Prot	-8102
itz	-8103
▁Street	-8104
▁shrink	-8105
▁stones	-8106
▁Cross	-8107
arently	-8108
▁dimensions	-8109
▁rod	-8110
▁warn	-8111
▁sen	-8112
upp	-8113
▁BIG	-8114
ieces	-8115
▁opera	-8116
▁adjusted	-8117
erent	-8118
▁reco	-8119
▁Stand	-8120
obi	-8121
▁complained	-8122
▁alien	-8123
uster	-8124
based	-8125
remely	-8126
▁LG	-8127
▁pencil	-8128
▁WE	-8129
▁creepy	-8130
▁exhaust	-8131
▁Besides	-8132
world	-8133
▁planned	-8134
oons	-8135
▁moisture	-8136
▁convent	-8137
▁solutions	-8138
▁Capt	-8139
▁99	-8140
▁Jam	-8141
▁HAD	-8142
paced	-8143
▁alpha	-8144
▁intuitive	-8145
OY	-8146
▁wifi	-8147
▁evolution	-8148
omed	-8149
gia	-8150
▁AG	-8151
▁greasy	-8152
abor	-8153
▁tasting	-8154
-5	-8155
nda	-8156
▁SC	-8157
▁surrounding	-8158
▁Fore	-8159
▁screens	-8160
▁giant	-8161
▁locks	-8162
icious	-8163
ndant	-8164
oooo	-8165
▁magnific	-8166
raw	-8167
▁HOW	-8168
▁creativity	-8169
▁engage	-8170
spe	-8171
▁remaining	-8172
exus	-8173
▁encl	-8174
onic	-8175
▁Luckily	-8176
▁Cool	-8177
reed	-8178
cean	-8179
▁atmosphere	-8180
▁Return	-8181
▁anytime	-8182
Another	-8183
▁medicine	-8184
▁Tor	-8185
atable	-8186
▁patch	-8187
▁evol	-8188
istles	-8189
▁Mrs	-8190
▁lining	-8191
▁poign	-8192
ountered	-8193
▁edited	-8194
▁tut	-8195
▁mixing	-8196
▁shallow	-8197
▁troubles	-8198
lay	-8199
▁Pict	-8200
▁SM	-8201
▁nervous	-8202
▁2.5	-8203
▁category	-8204
▁heating	-8205
▁statement	-8206
▁comparable	-8207
▁alt	-8208
▁Five	-8209
▁Roy	-8210
ician	-8211
mers	-8212
vest	-8213
LR	-8214
turn	-8215
▁Washington	-8216
▁VHS	-8217
▁breakfast	-8218
▁glow	-8219
▁rescue	-8220
▁bust	-8221
▁embarr	-8222
rain	-8223
▁cher	-8224
▁Eve	-8225
▁Grace	-8226
▁complaining	-8227
▁trigger	-8228
ulary	-8229
▁shoulders	-8230
▁glimpse	-8231
▁trend	-8232
▁harness	-8233
▁dispens	-8234
▁encountered	-8235
▁padded	-8236
VIE	-8237
▁rif	-8238
▁rhythm	-8239
▁sells	-8240
▁ho	-8241
ari	-8242
▁concerns	-8243
▁electrical	-8244
▁stood	-8245
▁bug	-8246
▁animation	-8247
▁discontin	-8248
▁reached	-8249
▁scrap	-8250
100	-8251
away	-8252
▁cere	-8253
maybe	-8254
▁Civil	-8255
▁uplifting	-8256
tube	-8257
▁lag	-8258
oured	-8259
▁layers	-8260
rael	-8261
▁popcorn	-8262
▁drawings	-8263
IES	-8264
▁merely	-8265
▁seats	-8266
▁Potter	-8267
▁upgraded	-8268
▁whim	-8269
MEND	-8270
essions	-8271
AYS	-8272
▁hearts	-8273
Yes	-8274
▁smoke	-8275
▁goals	-8276
▁landscape	-8277
umber	-8278
▁washes	-8279
▁honesty	-8280
▁informed	-8281
▁LOL	-8282
▁substance	-8283
▁secondary	-8284
▁spr	-8285
▁answered	-8286
▁featured	-8287
▁rolls	-8288
hem	-8289
writing	-8290
▁PERFECT	-8291
▁accessory	-8292
▁Totally	-8293
▁pond	-8294
aine	-8295
▁Sunday	-8296
oore	-8297
▁suffered	-8298
▁pc	-8299
venge	-8300
▁diamond	-8301
▁medio	-8302
osity	-8303
▁decade	-8304
angers	-8305
▁fishing	-8306
kable	-8307
▁Blood	-8308
-4	-8309
alia	-8310
▁synt	-8311
▁Irish	-8312
▁gap	-8313
▁blame	-8314
▁successfully	-8315
▁locked	-8316
anks	-8317
▁calcul	-8318
▁tedious	-8319
▁heavily	-8320
AU	-8321
keep	-8322
▁Att	-8323
▁folds	-8324
▁cans	-8325
▁novella	-8326
▁creatures	-8327
▁Russian	-8328
▁rapid	-8329
▁worlds	-8330
▁command	-8331
▁blew	-8332
▁mal	-8333
▁speeds	-8334
▁France	-8335
istent	-8336
▁heels	-8337
▁Aug	-8338
cons	-8339
▁neighbors	-8340
cers	-8341
▁Norm	-8342
▁readings	-8343
▁presence	-8344
▁obst	-8345
astered	-8346
▁grips	-8347
▁favourite	-8348
chers	-8349
▁knees	-8350
▁tremendous	-8351
▁Lady	-8352
encies	-8353
▁bracket	-8354
▁Radio	-8355
▁Charlie	-8356
▁Cap	-8357
▁disgust	-8358
▁particip	-8359
▁stir	-8360
▁ankle	-8361
▁Ron	-8362
vet	-8363
▁WR	-8364
▁status	-8365
▁Song	-8366
▁pig	-8367
▁Chap	-8368
OMMEND	-8369
▁digest	-8370
▁timeless	-8371
▁vampires	-8372
▁flawless	-8373
▁sacrif	-8374
▁pops	-8375
▁suggestion	-8376
▁switching	-8377
ptic	-8378
▁violent	-8379
▁cousin	-8380
▁Cur	-8381
lasses	-8382
▁Rub	-8383
▁automatic	-8384
▁valve	-8385
▁streaming	-8386
▁tho	-8387
Then	-8388
▁join	-8389
▁Brian	-8390
▁7.	-8391
▁1,	-8392
▁obtain	-8393
▁marked	-8394
hib	-8395
▁latter	-8396
member	-8397
mbre	-8398
including	-8399
▁Family	-8400
▁occup	-8401
▁vocab	-8402
▁fridge	-8403
▁Logitech	-8404
▁creation	-8405
think	-8406
▁intention	-8407
▁selected	-8408
▁TW	-8409
▁universal	-8410
agger	-8411
sel	-8412
▁Club	-8413
▁guit	-8414
▁beads	-8415
▁believes	-8416
▁revel	-8417
quis	-8418
▁Motor	-8419
Will	-8420
▁India	-8421
▁cents	-8422
▁reminder	-8423
ona	-8424
▁contract	-8425
▁navigate	-8426
▁Jenn	-8427
▁rides	-8428
▁stains	-8429
▁musician	-8430
▁punk	-8431
▁Dick	-8432
▁wipes	-8433
▁jumping	-8434
▁beans	-8435
▁flows	-8436
▁KN	-8437
▁oily	-8438
▁proven	-8439
-8	-8440
▁row	-8441
ilty	-8442
▁chargers	-8443
▁Arm	-8444
▁twisted	-8445
rial	-8446
4)	-8447
▁Adam	-8448
appointed	-8449
▁tender	-8450
▁sore	-8451
▁perfume	-8452
▁WORK	-8453
▁Kar	-8454
▁sky	-8455
▁keeper	-8456
▁intent	-8457
abilities	-8458
▁75	-8459
▁wand	-8460
▁outdoors	-8461
▁Lewis	-8462
▁supports	-8463
▁occasions	-8464
cut	-8465
▁ps	-8466
▁hype	-8467
▁Kids	-8468
▁Oct	-8469
▁highlights	-8470
▁vul	-8471
▁snapped	-8472
▁gather	-8473
▁destroyed	-8474
table	-8475
Only	-8476
▁AF	-8477
▁exceeded	-8478
▁cartoon	-8479
15	-8480
▁repro	-8481
▁shines	-8482
inist	-8483
▁GB	-8484
▁oun	-8485
▁Dou	-8486
▁footage	-8487
▁sentences	-8488
▁motorcy	-8489
▁Friend	-8490
▁outs	-8491
▁crying	-8492
▁driven	-8493
▁tin	-8494
▁tas	-8495
▁Jose	-8496
alley	-8497
▁commit	-8498
ulations	-8499
▁holidays	-8500
▁drums	-8501
▁narrator	-8502
▁guitars	-8503
▁travels	-8504
▁closure	-8505
▁Ash	-8506
andon	-8507
▁muff	-8508
▁independent	-8509
▁funn	-8510
▁leaking	-8511
▁novice	-8512
▁acoustic	-8513
▁$40	-8514
▁Johnson	-8515
▁rail	-8516
▁honey	-8517
▁grinder	-8518
▁erotic	-8519
▁soup	-8520
▁jokes	-8521
▁riff	-8522
▁Easter	-8523
▁chronic	-8524
▁parties	-8525
▁nightm	-8526
▁firmware	-8527
▁Av	-8528
▁prev	-8529
▁Jen	-8530
▁unre	-8531
actory	-8532
▁survived	-8533
▁singers	-8534
wear	-8535
▁Tony	-8536
utch	-8537
▁Supp	-8538
jo	-8539
▁transm	-8540
▁European	-8541
▁symbol	-8542
ione	-8543
▁matched	-8544
▁Pros	-8545
▁Show	-8546
▁basement	-8547
izations	-8548
▁concrete	-8549
▁enemy	-8550
arc	-8551
▁embarrass	-8552
▁Classic	-8553
▁surfaces	-8554
▁President	-8555
▁yrs	-8556
▁horiz	-8557
▁unreal	-8558
▁Key	-8559
ku	-8560
▁Jac	-8561
will	-8562
umble	-8563
▁ath	-8564
95	-8565
▁Oli	-8566
▁clog	-8567
▁rule	-8568
▁Dec	-8569
▁refill	-8570
▁nine	-8571
avor	-8572
▁bund	-8573
▁crib	-8574
Amer	-8575
Ar	-8576
▁Books	-8577
▁ensure	-8578
▁Child	-8579
intage	-8580
▁dose	-8581
▁saver	-8582
▁Mont	-8583
▁Cheap	-8584
▁Fair	-8585
▁Ang	-8586
ayed	-8587
▁snaps	-8588
▁Africa	-8589
▁booklet	-8590
▁Fred	-8591
▁skim	-8592
▁proved	-8593
▁Walmart	-8594
Tube	-8595
▁Mur	-8596
▁span	-8597
semb	-8598
▁harmon	-8599
▁volt	-8600
▁faucet	-8601
▁soothing	-8602
▁HEA	-8603
icide	-8604
▁twin	-8605
▁Same	-8606
▁hotel	-8607
▁horses	-8608
▁reduced	-8609
▁recall	-8610
Why	-8611
ila	-8612
▁slick	-8613
▁passages	-8614
▁Complete	-8615
▁quicker	-8616
▁console	-8617
▁wound	-8618
13	-8619
INE	-8620
▁writings	-8621
▁Tit	-8622
earl	-8623
▁(3	-8624
▁actress	-8625
▁ceiling	-8626
▁tempt	-8627
▁emergency	-8628
▁expans	-8629
rying	-8630
▁intelligence	-8631
▁amate	-8632
▁papers	-8633
▁Work	-8634
▁folded	-8635
▁RECOMMEND	-8636
▁Digital	-8637
▁abilities	-8638
▁dent	-8639
▁ft	-8640
▁corn	-8641
▁reveals	-8642
▁STAR	-8643
▁para	-8644
▁builds	-8645
pril	-8646
everal	-8647
▁reserv	-8648
too	-8649
▁sewing	-8650
cember	-8651
▁cocon	-8652
▁Gard	-8653
▁Card	-8654
inis	-8655
▁REAL	-8656
▁anticipated	-8657
▁guests	-8658
▁containers	-8659
▁Soft	-8660
▁Id	-8661
ston	-8662
OUND	-8663
▁?	-8664
itable	-8665
▁fiber	-8666
▁pets	-8667
ffic	-8668
▁DR	-8669
▁sufficient	-8670
▁til	-8671
ilight	-8672
▁straightforward	-8673
▁anime	-8674
-10	-8675
▁Roman	-8676
▁housing	-8677
▁Mini	-8678
umbers	-8679
ettle	-8680
▁alright	-8681
ifies	-8682
▁Squ	-8683
▁Nexus	-8684
PER	-8685
▁crowd	-8686
owers	-8687
▁campaign	-8688
▁frozen	-8689
▁imagined	-8690
▁percent	-8691
▁Cast	-8692
going	-8693
OUS	-8694
▁Sty	-8695
▁usable	-8696
▁crash	-8697
▁beloved	-8698
▁obsc	-8699
▁international	-8700
▁Dur	-8701
wo	-8702
▁loads	-8703
▁Bond	-8704
▁rugged	-8705
▁Honestly	-8706
ntil	-8707
▁Things	-8708
▁hers	-8709
▁ruin	-8710
▁leadership	-8711
▁advertising	-8712
▁tasted	-8713
▁wip	-8714
▁suggests	-8715
▁gross	-8716
▁Brad	-8717
dep	-8718
ARE	-8719
▁incon	-8720
▁disagree	-8721
▁Ford	-8722
▁Either	-8723
▁Jason	-8724
▁fiance	-8725
stone	-8726
▁Come	-8727
▁Dam	-8728
▁lazy	-8729
▁caution	-8730
▁Holy	-8731
▁guarantee	-8732
chy	-8733
▁loses	-8734
▁Fortunately	-8735
ante	-8736
▁charts	-8737
▁toast	-8738
▁pole	-8739
Is	-8740
▁arrangements	-8741
orce	-8742
▁hyp	-8743
▁cub	-8744
plays	-8745
resp	-8746
▁fills	-8747
udes	-8748
car	-8749
▁Charact	-8750
uite	-8751
gram	-8752
▁sop	-8753
ester	-8754
Like	-8755
UPDATE	-8756
uper	-8757
▁champ	-8758
▁likeable	-8759
▁assumed	-8760
▁Ball	-8761
▁8.	-8762
▁overpriced	-8763
also	-8764
▁responsible	-8765
▁illness	-8766
▁youtube	-8767
arer	-8768
▁endless	-8769
▁melodies	-8770
▁understandable	-8771
▁Ryan	-8772
itivity	-8773
▁Pen	-8774
▁Unless	-8775
Here	-8776
▁Mid	-8777
▁operating	-8778
osition	-8779
▁connectors	-8780
▁restaurant	-8781
▁cookie	-8782
▁featuring	-8783
▁unfort	-8784
▁pilot	-8785
▁reviewing	-8786
AG	-8787
▁reveal	-8788
▁involving	-8789
▁skirt	-8790
▁Enter	-8791
▁laying	-8792
▁gotta	-8793
▁Hit	-8794
aret	-8795
umm	-8796
▁ratings	-8797
▁produces	-8798
▁versus	-8799
ja	-8800
▁oils	-8801
▁CR	-8802
From	-8803
▁slippery	-8804
vas	-8805
osing	-8806
▁Obviously	-8807
▁placing	-8808
▁Toy	-8809
▁seams	-8810
▁Daniel	-8811
▁perfection	-8812
itect	-8813
fall	-8814
▁circle	-8815
▁1000	-8816
▁outcome	-8817
▁meaningful	-8818
▁honor	-8819
▁dynamic	-8820
▁3-4	-8821
▁squeeze	-8822
inds	-8823
HING	-8824
▁bite	-8825
▁THESE	-8826
▁interaction	-8827
ava	-8828
▁massive	-8829
▁innocent	-8830
▁screwdri	-8831
▁chemicals	-8832
▁Poor	-8833
SO	-8834
▁fuel	-8835
▁gems	-8836
▁unhappy	-8837
▁Sweet	-8838
▁racing	-8839
▁steady	-8840
▁1.5	-8841
▁Israel	-8842
▁insane	-8843
▁phenomenal	-8844
licity	-8845
▁coconut	-8846
fly	-8847
▁trap	-8848
▁bolt	-8849
▁coun	-8850
▁scoop	-8851
▁28	-8852
▁colour	-8853
▁Been	-8854
THE	-8855
▁frequent	-8856
VEN	-8857
▁fears	-8858
mate	-8859
▁ignore	-8860
▁clue	-8861
▁accurately	-8862
▁3/4	-8863
aze	-8864
▁batch	-8865
▁26	-8866
▁vet	-8867
rum	-8868
▁convinc	-8869
▁June	-8870
▁minimum	-8871
▁analog	-8872
▁evenly	-8873
▁believed	-8874
▁Fur	-8875
▁Short	-8876
▁recip	-8877
▁residue	-8878
▁steamy	-8879
▁lame	-8880
▁strategies	-8881
▁native	-8882
▁Fall	-8883
BO	-8884
▁rang	-8885
riger	-8886
▁vocabulary	-8887
ACT	-8888
▁Edition	-8889
ALLY	-8890
▁halfway	-8891
▁communication	-8892
ca	-8893
▁desp	-8894
▁trimmer	-8895
▁umbre	-8896
▁pressed	-8897
▁removable	-8898
matical	-8899
▁Andrew	-8900
▁Magic	-8901
obby	-8902
▁uncle	-8903
Rec	-8904
▁nobody	-8905
easy	-8906
▁brightness	-8907
▁cass	-8908
▁fuzz	-8909
▁essays	-8910
▁increased	-8911
▁wired	-8912
▁arts	-8913
▁Sadly	-8914
because	-8915
issue	-8916
▁dictionary	-8917
▁distracting	-8918
▁slipping	-8919
▁Fil	-8920
▁subtit	-8921
Buy	-8922
▁mixes	-8923
▁dolls	-8924
▁isnt	-8925
iley	-8926
low	-8927
vation	-8928
▁irritating	-8929
▁appli	-8930
▁Ins	-8931
▁resistance	-8932
▁tom	-8933
▁fence	-8934
▁scanner	-8935
brush	-8936
asters	-8937
▁Shan	-8938
▁darn	-8939
▁lean	-8940
▁belly	-8941
▁brave	-8942
▁slippers	-8943
▁located	-8944
▁FM	-8945
▁reread	-8946
▁clamp	-8947
▁displayed	-8948
▁sophist	-8949
ecd	-8950
▁HAS	-8951
▁supplies	-8952
▁rinse	-8953
aser	-8954
▁nursing	-8955
▁Custom	-8956
▁YouTube	-8957
▁tile	-8958
▁bench	-8959
▁anecd	-8960
▁supernatural	-8961
▁sket	-8962
▁chick	-8963
▁NEED	-8964
▁rights	-8965
▁fed	-8966
▁Ill	-8967
▁pillows	-8968
▁wasnt	-8969
▁supported	-8970
▁$$	-8971
▁viewer	-8972
▁visiting	-8973
▁Silver	-8974
▁lemon	-8975
▁Rog	-8976
▁Johnny	-8977
.3.	-8978
▁twe	-8979
▁3,	-8980
▁Santa	-8981
▁gluten	-8982
▁Billy	-8983
▁modem	-8984
ran	-8985
ained	-8986
▁accomplished	-8987
▁poly	-8988
eline	-8989
▁shapes	-8990
▁veter	-8991
▁proced	-8992
--------	-8993
▁qualities	-8994
▁Carl	-8995
▁experiencing	-8996
▁Yeah	-8997
▁Greek	-8998
▁poignant	-8999
▁speech	-9000
▁neighborhood	-9001
fiction	-9002
▁stored	-9003
itionally	-9004
THING	-9005
▁desert	-9006
inations	-9007
▁fitted	-9008
▁downloading	-9009
▁practices	-9010
anity	-9011
▁agent	-9012
▁Ep	-9013
▁NEW	-9014
▁resistant	-9015
Jo	-9016
hero	-9017
▁inval	-9018
▁muscle	-9019
▁conserv	-9020
▁chat	-9021
▁mediocre	-9022
▁tricks	-9023
▁thrilling	-9024
ITY	-9025
▁conce	-9026
▁intric	-9027
Since	-9028
▁Mexico	-9029
idents	-9030
▁Stud	-9031
▁handsome	-9032
▁Lear	-9033
▁Ros	-9034
▁Him	-9035
▁soldiers	-9036
ravel	-9037
▁150	-9038
▁Beatles	-9039
200	-9040
▁masc	-9041
▁Cry	-9042
ensional	-9043
▁120	-9044
▁Naz	-9045
▁spoke	-9046
▁storytelling	-9047
CR	-9048
▁everytime	-9049
▁WELL	-9050
▁resolved	-9051
▁clasp	-9052
▁feeder	-9053
▁enhance	-9054
▁Bruce	-9055
▁passionate	-9056
▁alternate	-9057
▁determine	-9058
▁instrumental	-9059
▁reputation	-9060
▁ris	-9061
IDE	-9062
▁Army	-9063
▁Personally	-9064
▁biz	-9065
▁fright	-9066
tains	-9067
▁admire	-9068
▁existence	-9069
▁staff	-9070
Its	-9071
▁official	-9072
▁anth	-9073
ABLE	-9074
▁chor	-9075
arre	-9076
▁bib	-9077
rence	-9078
▁schedule	-9079
quality	-9080
taking	-9081
▁acne	-9082
▁cooker	-9083
▁anger	-9084
uries	-9085
▁Iron	-9086
▁feeding	-9087
▁somebody	-9088
▁services	-9089
▁avo	-9090
▁Sell	-9091
▁continuing	-9092
▁rolled	-9093
▁article	-9094
▁isol	-9095
▁August	-9096
▁cooked	-9097
▁positions	-9098
▁spite	-9099
▁wasting	-9100
▁boards	-9101
felt	-9102
otional	-9103
▁competition	-9104
▁essence	-9105
▁Service	-9106
▁disaster	-9107
▁Hawai	-9108
nis	-9109
▁2)	-9110
▁FA	-9111
PU	-9112
▁newsp	-9113
▁frankly	-9114
▁accent	-9115
▁conscious	-9116
▁calm	-9117
working	-9118
▁owning	-9119
▁reluct	-9120
▁tracking	-9121
▁fluid	-9122
▁gripe	-9123
lb	-9124
▁cram	-9125
▁hunt	-9126
▁weights	-9127
▁cave	-9128
▁appet	-9129
▁acted	-9130
▁jumped	-9131
▁sunglasses	-9132
▁pean	-9133
▁witch	-9134
▁Ram	-9135
▁Susan	-9136
▁habit	-9137
uk	-9138
▁convert	-9139
▁diameter	-9140
▁arc	-9141
bag	-9142
▁Gave	-9143
▁curve	-9144
▁holders	-9145
▁accompan	-9146
▁Christianity	-9147
▁teenagers	-9148
▁crappy	-9149
▁magnets	-9150
▁warmer	-9151
inters	-9152
erning	-9153
▁amateur	-9154
▁Ber	-9155
olen	-9156
▁likable	-9157
▁HIGHLY	-9158
▁listener	-9159
▁23	-9160
warming	-9161
▁adjustments	-9162
▁angles	-9163
▁March	-9164
▁Secret	-9165
▁conversations	-9166
▁mud	-9167
▁generations	-9168
▁economic	-9169
▁Upon	-9170
▁rely	-9171
▁scratching	-9172
▁lately	-9173
onsense	-9174
▁FL	-9175
▁packages	-9176
▁sche	-9177
▁recy	-9178
za	-9179
ounding	-9180
▁flour	-9181
▁194	-9182
ingu	-9183
▁bridge	-9184
▁moon	-9185
▁pizz	-9186
▁Usually	-9187
▁supplied	-9188
▁unp	-9189
▁lone	-9190
▁Jay	-9191
▁Saw	-9192
▁repeatedly	-9193
Pr	-9194
ggy	-9195
▁ads	-9196
agan	-9197
▁stuffed	-9198
onda	-9199
▁bone	-9200
▁sweep	-9201
▁suited	-9202
foot	-9203
▁route	-9204
▁proce	-9205
▁flawed	-9206
▁weapon	-9207
▁citiz	-9208
▁woven	-9209
▁Needless	-9210
▁pretend	-9211
▁SA	-9212
Ray	-9213
▁bog	-9214
);	-9215
urdy	-9216
▁Italy	-9217
▁pref	-9218
▁locking	-9219
▁shed	-9220
▁Hunter	-9221
▁Camp	-9222
▁connects	-9223
▁comparing	-9224
rab	-9225
▁Sing	-9226
▁Hay	-9227
▁refriger	-9228
▁establ	-9229
▁December	-9230
▁cage	-9231
▁Bal	-9232
▁measurements	-9233
▁pist	-9234
▁affected	-9235
ifferent	-9236
▁belong	-9237
▁Moore	-9238
▁stereoty	-9239
cially	-9240
OND	-9241
▁vegg	-9242
▁logical	-9243
▁tongue	-9244
▁attraction	-9245
▁PRO	-9246
▁discussed	-9247
▁solar	-9248
▁socket	-9249
▁indoor	-9250
ooked	-9251
▁remix	-9252
▁Bost	-9253
▁identity	-9254
▁labeled	-9255
▁fog	-9256
▁imaginative	-9257
▁accompany	-9258
▁precious	-9259
▁earn	-9260
▁south	-9261
▁accommod	-9262
▁zombies	-9263
▁skinny	-9264
▁interpretation	-9265
▁64	-9266
▁researching	-9267
▁una	-9268
▁Basically	-9269
IV	-9270
▁dealt	-9271
lan	-9272
llers	-9273
ORT	-9274
▁Smart	-9275
▁reson	-9276
fits	-9277
▁flower	-9278
stery	-9279
▁winning	-9280
ura	-9281
▁simplicity	-9282
▁April	-9283
▁scenery	-9284
▁typos	-9285
▁depressing	-9286
▁acid	-9287
▁wiring	-9288
▁portrait	-9289
▁firmly	-9290
ulating	-9291
▁quote	-9292
▁alert	-9293
▁Clean	-9294
▁Atl	-9295
stein	-9296
▁intensity	-9297
▁sciss	-9298
plic	-9299
▁safely	-9300
allation	-9301
▁gloss	-9302
▁tapes	-9303
7,	-9304
umph	-9305
▁Louis	-9306
▁magnificent	-9307
▁portrayal	-9308
By	-9309
▁wanna	-9310
▁couldnt	-9311
▁Ari	-9312
▁hd	-9313
▁stamp	-9314
ocaly	-9315
▁distribut	-9316
▁60'	-9317
▁Tem	-9318
▁worship	-9319
▁blah	-9320
▁newest	-9321
EVER	-9322
▁discip	-9323
rog	-9324
▁mart	-9325
▁tread	-9326
▁riveting	-9327
▁Joy	-9328
hh	-9329
▁Apparently	-9330
▁400	-9331
Le	-9332
▁Alice	-9333
▁Pink	-9334
▁weaves	-9335
▁Heaven	-9336
asts	-9337
▁revolution	-9338
▁mint	-9339
)-	-9340
En	-9341
▁Dem	-9342
obile	-9343
▁parall	-9344
▁tutor	-9345
▁WHEN	-9346
▁brutal	-9347
▁July	-9348
▁fate	-9349
▁lb	-9350
▁movements	-9351
allow	-9352
▁Several	-9353
▁freeze	-9354
▁appreciation	-9355
▁Bose	-9356
▁hall	-9357
▁Less	-9358
▁Doctor	-9359
▁immediate	-9360
▁Vietnam	-9361
▁dealer	-9362
▁Profess	-9363
▁Truly	-9364
FF	-9365
dle	-9366
TW	-9367
▁tuck	-9368
▁quarter	-9369
▁beer	-9370
▁Hi	-9371
▁Sav	-9372
!),	-9373
▁quil	-9374
▁kidn	-9375
▁grabbed	-9376
▁annoyed	-9377
every	-9378
otted	-9379
oting	-9380
▁River	-9381
elf	-9382
icking	-9383
ader	-9384
-20	-9385
▁Mind	-9386
▁cig	-9387
▁region	-9388
▁Rick	-9389
▁associated	-9390
▁professor	-9391
ATION	-9392
▁inconven	-9393
▁vest	-9394
▁Comes	-9395
▁adore	-9396
iliar	-9397
▁sensitivity	-9398
ICK	-9399
issa	-9400
writer	-9401
▁manually	-9402
▁pregnancy	-9403
▁abandon	-9404
▁upbeat	-9405
wl	-9406
through	-9407
▁ultra	-9408
▁Target	-9409
▁swive	-9410
style	-9411
▁lawn	-9412
▁1)	-9413
market	-9414
▁Kim	-9415
▁frames	-9416
▁permanent	-9417
▁amounts	-9418
▁Ive	-9419
▁spelling	-9420
udge	-9421
").	-9422
ylon	-9423
▁Jer	-9424
▁philosoph	-9425
▁sew	-9426
▁adapters	-9427
erer	-9428
Sec	-9429
▁android	-9430
▁2011	-9431
▁Dragon	-9432
▁attempted	-9433
▁valid	-9434
Cl	-9435
▁emer	-9436
▁saga	-9437
omy	-9438
▁boun	-9439
eling	-9440
ua	-9441
▁academic	-9442
▁melodic	-9443
▁sprink	-9444
▁glos	-9445
▁adjusting	-9446
▁roof	-9447
▁detract	-9448
▁immensely	-9449
▁vegetables	-9450
▁beef	-9451
rix	-9452
▁cheapest	-9453
▁Wilson	-9454
SP	-9455
orse	-9456
▁psychological	-9457
iches	-9458
fire	-9459
has	-9460
comp	-9461
▁unplug	-9462
▁shades	-9463
▁stim	-9464
▁tasks	-9465
hot	-9466
orious	-9467
▁processor	-9468
▁ive	-9469
▁Kore	-9470
▁Kl	-9471
▁upright	-9472
Still	-9473
▁bomb	-9474
▁discontinued	-9475
▁emailed	-9476
imated	-9477
▁toaster	-9478
▁Lost	-9479
▁Fox	-9480
▁devoted	-9481
▁demo	-9482
▁MB	-9483
▁Large	-9484
▁afterwards	-9485
igning	-9486
ih	-9487
▁hungry	-9488
▁Food	-9489
rior	-9490
▁Consider	-9491
▁healthier	-9492
▁Bush	-9493
rams	-9494
Get	-9495
▁Smo	-9496
stairs	-9497
▁sometime	-9498
kel	-9499
▁lips	-9500
▁Living	-9501
▁Rather	-9502
▁silent	-9503
▁spaces	-9504
▁Cass	-9505
▁Kelly	-9506
▁Greg	-9507
▁Trek	-9508
▁spends	-9509
▁spoon	-9510
▁TOO	-9511
▁rope	-9512
▁Dun	-9513
▁indicated	-9514
8,	-9515
▁Nic	-9516
▁struggled	-9517
▁princess	-9518
oln	-9519
▁Virgin	-9520
▁Stan	-9521
▁session	-9522
care	-9523
▁Beach	-9524
▁anxious	-9525
▁rounded	-9526
▁easiest	-9527
▁DIS	-9528
▁10.	-9529
▁shortly	-9530
▁mins	-9531
burn	-9532
▁Ba	-9533
▁During	-9534
▁vintage	-9535
▁fee	-9536
break	-9537
▁definition	-9538
▁muy	-9539
▁Davis	-9540
▁sellers	-9541
▁Pac	-9542
looking	-9543
aired	-9544
▁countless	-9545
iac	-9546
▁therapy	-9547
educt	-9548
▁Cy	-9549
▁responsive	-9550
▁candle	-9551
izon	-9552
▁bowls	-9553
▁recommending	-9554
▁filler	-9555
▁offic	-9556
▁rush	-9557
MA	-9558
▁cert	-9559
▁Blues	-9560
▁embr	-9561
▁reminis	-9562
iba	-9563
▁betray	-9564
▁pots	-9565
▁collap	-9566
▁mainstream	-9567
▁Care	-9568
▁unfortunate	-9569
▁YA	-9570
annah	-9571
▁earphones	-9572
9,	-9573
▁latch	-9574
▁Prince	-9575
▁inspire	-9576
▁stab	-9577
▁shaver	-9578
▁lowest	-9579
thrit	-9580
▁marvelous	-9581
▁notebook	-9582
▁Miller	-9583
▁pron	-9584
▁Bow	-9585
▁Follow	-9586
van	-9587
manship	-9588
▁Rod	-9589
thur	-9590
▁UPS	-9591
oli	-9592
Anyway	-9593
▁clues	-9594
...)	-9595
abled	-9596
▁chuck	-9597
ingo	-9598
▁Amy	-9599
▁Rachel	-9600
▁cutter	-9601
▁Ly	-9602
arse	-9603
▁cro	-9604
▁surviv	-9605
▁$6	-9606
▁deleted	-9607
▁discovery	-9608
▁ack	-9609
▁schools	-9610
▁supposedly	-9611
▁border	-9612
▁Lin	-9613
▁Movie	-9614
▁195	-9615
▁consumer	-9616
▁scra	-9617
▁handed	-9618
▁attempting	-9619
▁Lyn	-9620
iform	-9621
▁arrives	-9622
▁Today	-9623
▁Road	-9624
▁warmth	-9625
▁rifle	-9626
▁weakness	-9627
▁motorcycle	-9628
▁subsequ	-9629
▁Sa	-9630
semble	-9631
▁exclus	-9632
▁Until	-9633
osaur	-9634
ignment	-9635
▁Rus	-9636
▁brass	-9637
orton	-9638
▁expense	-9639
▁guidance	-9640
▁Batman	-9641
▁4.5	-9642
▁System	-9643
OWN	-9644
▁buzz	-9645
kids	-9646
▁Mach	-9647
▁worries	-9648
▁aqu	-9649
▁Kill	-9650
▁severe	-9651
▁newly	-9652
▁Barb	-9653
▁smelled	-9654
▁Friday	-9655
▁Ra	-9656
▁Jake	-9657
▁Beck	-9658
▁Someone	-9659
▁Inter	-9660
gypt	-9661
▁Lisa	-9662
▁bedtime	-9663
▁artistic	-9664
▁Steven	-9665
would	-9666
▁Soul	-9667
▁umbrella	-9668
▁blends	-9669
▁meditation	-9670
build	-9671
▁performing	-9672
▁preview	-9673
ghan	-9674
▁hyd	-9675
▁switches	-9676
Note	-9677
Easy	-9678
▁recovery	-9679
▁involve	-9680
▁sword	-9681
▁lined	-9682
▁rechargeable	-9683
iders	-9684
▁Bern	-9685
▁obsessed	-9686
▁replacements	-9687
▁inev	-9688
inet	-9689
▁enthr	-9690
▁Roll	-9691
▁hammer	-9692
▁recommendations	-9693
ASE	-9694
▁buyer	-9695
▁displays	-9696
▁gently	-9697
▁USE	-9698
▁Video	-9699
▁invaluable	-9700
▁configur	-9701
▁Games	-9702
▁collecting	-9703
▁HTC	-9704
▁nostal	-9705
▁airport	-9706
▁cock	-9707
erform	-9708
▁bodies	-9709
▁imagery	-9710
▁revenge	-9711
▁gallon	-9712
utral	-9713
▁Along	-9714
zel	-9715
▁kettle	-9716
▁deserved	-9717
▁Extremely	-9718
high	-9719
▁faded	-9720
wall	-9721
sion	-9722
▁comics	-9723
▁national	-9724
▁Based	-9725
xic	-9726
▁Kevin	-9727
▁snugly	-9728
▁WHO	-9729
/20	-9730
▁publishing	-9731
wart	-9732
▁monsters	-9733
ordan	-9734
▁Dom	-9735
▁desperate	-9736
▁streets	-9737
▁incorpor	-9738
▁Kay	-9739
cakes	-9740
▁anyways	-9741
▁thankful	-9742
INK	-9743
▁Solid	-9744
▁supplements	-9745
▁Bird	-9746
▁Anna	-9747
▁grat	-9748
▁vitamins	-9749
▁Veg	-9750
mitted	-9751
▁Strong	-9752
▁physically	-9753
▁infant	-9754
aura	-9755
▁uneven	-9756
▁claimed	-9757
Sp	-9758
irus	-9759
ober	-9760
▁Takes	-9761
▁gained	-9762
Amazon	-9763
▁publication	-9764
pled	-9765
▁trials	-9766
IBLE	-9767
▁swimming	-9768
oke	-9769
shirt	-9770
▁dating	-9771
▁lids	-9772
▁melody	-9773
▁Middle	-9774
▁lect	-9775
▁conj	-9776
▁pir	-9777
▁binding	-9778
▁Boston	-9779
▁Patter	-9780
incoln	-9781
▁Elect	-9782
▁freezer	-9783
▁bumps	-9784
▁enemies	-9785
▁tubes	-9786
▁WANT	-9787
▁attachments	-9788
▁vague	-9789
story	-9790
▁Velcro	-9791
▁utterly	-9792
▁stumbled	-9793
▁Women	-9794
▁coloring	-9795
▁otter	-9796
▁Spring	-9797
▁matte	-9798
▁Cru	-9799
▁Burn	-9800
▁Summer	-9801
ivery	-9802
giving	-9803
▁strict	-9804
▁addresses	-9805
▁OM	-9806
Once	-9807
▁Non	-9808
▁cozy	-9809
ealous	-9810
▁downs	-9811
▁Est	-9812
▁PH	-9813
▁Ther	-9814
umn	-9815
▁sust	-9816
imental	-9817
▁heats	-9818
ONS	-9819
▁lend	-9820
▁shocking	-9821
▁dread	-9822
▁introduce	-9823
osis	-9824
uest	-9825
jud	-9826
▁hurry	-9827
▁pressing	-9828
▁memor	-9829
opy	-9830
ige	-9831
Let	-9832
▁messed	-9833
▁Web	-9834
▁metaph	-9835
▁Josh	-9836
▁screwdriver	-9837
▁lays	-9838
▁attracted	-9839
▁consistency	-9840
eff	-9841
▁mort	-9842
▁architect	-9843
▁HOT	-9844
dows	-9845
igan	-9846
▁ours	-9847
▁makers	-9848
▁Tal	-9849
▁upload	-9850
▁scissors	-9851
▁woods	-9852
ido	-9853
▁pedal	-9854
lear	-9855
▁depression	-9856
rett	-9857
▁mes	-9858
ribute	-9859
▁villain	-9860
▁pleasing	-9861
▁choosing	-9862
16	-9863
▁Sept	-9864
▁patients	-9865
prise	-9866
▁acknow	-9867
▁Bus	-9868
▁mats	-9869
▁Div	-9870
▁Jean	-9871
▁leaked	-9872
▁27	-9873
▁dub	-9874
▁Jennifer	-9875
▁generous	-9876
▁grief	-9877
▁logic	-9878
▁freak	-9879
▁sequence	-9880
▁bikes	-9881
▁intact	-9882
tion	-9883
▁loading	-9884
▁Const	-9885
▁rose	-9886
▁Mi	-9887
atherine	-9888
▁visited	-9889
▁2.0	-9890
▁Ice	-9891
▁gritty	-9892
▁potty	-9893
▁Dor	-9894
▁Ire	-9895
▁elder	-9896
▁(5	-9897
▁golden	-9898
▁convey	-9899
▁stretched	-9900
erved	-9901
agine	-9902
▁gore	-9903
▁MacBook	-9904
▁army	-9905
bad	-9906
▁Land	-9907
▁diverse	-9908
making	-9909
rim	-9910
ucky	-9911
▁Audio	-9912
▁cooling	-9913
▁discovers	-9914
▁State	-9915
▁Cas	-9916
▁hardcore	-9917
▁Phill	-9918
▁angst	-9919
▁seed	-9920
▁cos	-9921
▁Simon	-9922
▁stairs	-9923
tenance	-9924
▁incons	-9925
▁maximum	-9926
▁encouraging	-9927
▁disappear	-9928
▁Facebook	-9929
▁Wire	-9930
▁polished	-9931
imm	-9932
intend	-9933
▁evident	-9934
▁confusion	-9935
▁Bell	-9936
except	-9937
▁mixture	-9938
atisfied	-9939
▁talents	-9940
▁recover	-9941
▁approximately	-9942
▁Cold	-9943
vol	-9944
▁muscles	-9945
▁shat	-9946
▁toner	-9947
▁vehicles	-9948
NOT	-9949
Christ	-9950
▁Therefore	-9951
▁3.0	-9952
▁grain	-9953
▁compartments	-9954
▁capability	-9955
▁Office	-9956
▁convincing	-9957
▁samples	-9958
▁intim	-9959
14	-9960
▁nonetheless	-9961
Bottom	-9962
inent	-9963
aturday	-9964
cling	-9965
▁1080	-9966
▁queen	-9967
▁LA	-9968
▁tribute	-9969
▁redeem	-9970
▁January	-9971
▁unsc	-9972
attering	-9973
▁intimate	-9974
▁possibilities	-9975
▁Press	-9976
▁enlightening	-9977
▁dragon	-9978
▁screwed	-9979
izard	-9980
shield	-9981
▁Might	-9982
▁marry	-9983
cribe	-9984
days	-9985
▁Lib	-9986
ws	-9987
Ke	-9988
ivalent	-9989
▁Budd	-9990
▁barrel	-9991
▁mut	-9992
▁expressed	-9993
▁sake	-9994
▁PUR	-9995
Unfortunately	-9996
▁thro	-9997
▁physics	-9998
▁envelope	-9999
▁introduces	-10000
▁global	-10001
▁shadow	-10002
▁pasta	-10003
mind	-10004
▁curtain	-10005
asant	-10006
ellar	-10007
edia	-10008
▁vertical	-10009
reck	-10010
▁Rich	-10011
▁sweater	-10012
lent	-10013
▁Brothers	-10014
▁eagerly	-10015
▁cordless	-10016
▁consequences	-10017
▁blows	-10018
▁measuring	-10019
▁traffic	-10020
▁argument	-10021
ools	-10022
▁comfor	-10023
pical	-10024
▁hairs	-10025
opher	-10026
▁vanilla	-10027
▁BY	-10028
▁grease	-10029
cca	-10030
▁ate	-10031
elve	-10032
▁clipp	-10033
▁BO	-10034
▁Canada	-10035
luded	-10036
▁jumps	-10037
▁stub	-10038
▁corporate	-10039
cellent	-10040
person	-10041
▁Southern	-10042
▁Emma	-10043
▁west	-10044
▁eval	-10045
▁Laure	-10046
▁femin	-10047
▁fascinated	-10048
▁urban	-10049
▁blowing	-10050
enger	-10051
▁Pop	-10052
▁nylon	-10053
▁55	-10054
▁fraction	-10055
▁stolen	-10056
run	-10057
▁upcoming	-10058
▁roomy	-10059
▁moisturizer	-10060
rifying	-10061
▁wrest	-10062
▁sophisticated	-10063
▁ner	-10064
▁Bos	-10065
▁EAS	-10066
must	-10067
▁Given	-10068
olk	-10069
▁thirty	-10070
herent	-10071
▁Leon	-10072
iat	-10073
▁HER	-10074
▁retain	-10075
▁requested	-10076
▁concerning	-10077
▁Want	-10078
▁fade	-10079
aying	-10080
▁Know	-10081
▁uniform	-10082
▁fri	-10083
▁gut	-10084
yard	-10085
▁cruel	-10086
▁buckle	-10087
▁FUN	-10088
▁pha	-10089
ordered	-10090
▁Body	-10091
▁pipe	-10092
▁vibr	-10093
▁timing	-10094
ext	-10095
mill	-10096
rad	-10097
▁Cher	-10098
▁reflection	-10099
BI	-10100
athetic	-10101
▁Children	-10102
▁spy	-10103
▁pile	-10104
▁monitors	-10105
eu	-10106
▁dough	-10107
▁Soph	-10108
zens	-10109
▁Age	-10110
▁funky	-10111
▁III	-10112
▁DI	-10113
▁twins	-10114
▁Robin	-10115
▁handful	-10116
▁lying	-10117
▁viewed	-10118
layer	-10119
Of	-10120
▁RA	-10121
▁paired	-10122
▁Repl	-10123
▁intellectual	-10124
acon	-10125
▁titled	-10126
▁ships	-10127
▁Australia	-10128
▁substitute	-10129
▁Remember	-10130
lymp	-10131
irk	-10132
▁galaxy	-10133
▁theories	-10134
rep	-10135
ilton	-10136
▁diab	-10137
orant	-10138
▁roast	-10139
ington	-10140
▁louder	-10141
lam	-10142
wind	-10143
▁retired	-10144
▁ster	-10145
ITT	-10146
▁lesser	-10147
▁investigation	-10148
▁gosp	-10149
iah	-10150
▁commented	-10151
▁spice	-10152
▁wishing	-10153
▁dries	-10154
▁register	-10155
▁texts	-10156
rat	-10157
▁Lincoln	-10158
▁extent	-10159
▁emails	-10160
▁mixer	-10161
▁artic	-10162
▁boom	-10163
▁sessions	-10164
9.99	-10165
OUGHT	-10166
▁suits	-10167
▁demons	-10168
▁excuse	-10169
arms	-10170
▁Anth	-10171
▁Order	-10172
▁warming	-10173
▁cer	-10174
▁mower	-10175
▁Joseph	-10176
▁largely	-10177
▁labor	-10178
▁kiss	-10179
▁explores	-10180
▁48	-10181
▁BET	-10182
▁RAM	-10183
▁Going	-10184
lights	-10185
American	-10186
▁paints	-10187
unks	-10188
▁server	-10189
▁squir	-10190
▁selections	-10191
▁olds	-10192
▁Otterbox	-10193
▁reaching	-10194
ylan	-10195
▁Egypt	-10196
type	-10197
road	-10198
▁buyers	-10199
/3	-10200
▁comprom	-10201
▁miracle	-10202
cia	-10203
▁capabilities	-10204
lend	-10205
urate	-10206
▁catching	-10207
▁Ag	-10208
▁gum	-10209
▁fortune	-10210
▁specs	-10211
▁sympt	-10212
▁transmitter	-10213
▁airpl	-10214
▁weekly	-10215
▁Guess	-10216
tech	-10217
▁ampl	-10218
THER	-10219
uggage	-10220
▁peeling	-10221
acious	-10222
amental	-10223
/8	-10224
▁abrupt	-10225
lusions	-10226
▁CS	-10227
orted	-10228
▁beating	-10229
rell	-10230
phan	-10231
▁throws	-10232
rict	-10233
ardless	-10234
▁addiction	-10235
▁unlikely	-10236
▁horizont	-10237
beit	-10238
▁University	-10239
▁phrases	-10240
▁Thus	-10241
▁ven	-10242
▁Les	-10243
▁possibility	-10244
▁accepted	-10245
omic	-10246
▁ray	-10247
▁Fab	-10248
URE	-10249
▁scal	-10250
UAL	-10251
▁cris	-10252
friendly	-10253
▁defined	-10254
"...	-10255
inging	-10256
rem	-10257
▁village	-10258
▁AV	-10259
▁cultures	-10260
▁Dean	-10261
▁Customer	-10262
▁Gun	-10263
▁effic	-10264
▁dates	-10265
▁(4	-10266
▁Scot	-10267
▁pix	-10268
istan	-10269
TE	-10270
OUR	-10271
▁drew	-10272
▁Die	-10273
▁reports	-10274
▁guilty	-10275
▁mounts	-10276
cont	-10277
▁Ass	-10278
▁ABOUT	-10279
bird	-10280
▁modes	-10281
▁hitch	-10282
▁bumper	-10283
▁component	-10284
▁inserts	-10285
▁divers	-10286
oral	-10287
Please	-10288
▁merc	-10289
▁Motorola	-10290
▁dism	-10291
Go	-10292
▁Faith	-10293
▁dynam	-10294
▁reported	-10295
▁stink	-10296
▁collections	-10297
▁habits	-10298
▁exter	-10299
▁Bry	-10300
▁wave	-10301
▁ax	-10302
ADE	-10303
▁indicator	-10304
▁massage	-10305
▁promises	-10306
▁Ali	-10307
▁AP	-10308
atell	-10309
HD	-10310
▁houses	-10311
▁Fed	-10312
iper	-10313
▁Parker	-10314
▁Bay	-10315
▁Row	-10316
▁Funny	-10317
▁espresso	-10318
▁hiding	-10319
depth	-10320
▁---	-10321
▁pistol	-10322
page	-10323
cam	-10324
▁mall	-10325
▁Knight	-10326
▁Edward	-10327
▁lint	-10328
▁dozens	-10329
▁blessed	-10330
▁varied	-10331
▁refused	-10332
▁Stra	-10333
month	-10334
▁Ira	-10335
▁Oz	-10336
unge	-10337
bbing	-10338
▁cracks	-10339
▁Clark	-10340
▁capital	-10341
▁tid	-10342
EASE	-10343
▁Special	-10344
▁spill	-10345
▁arthrit	-10346
▁5,	-10347
????	-10348
▁Nove	-10349
▁National	-10350
DER	-10351
oyd	-10352
ausible	-10353
ologies	-10354
oma	-10355
▁Table	-10356
▁$15	-10357
▁Cour	-10358
uh	-10359
▁projector	-10360
▁satisfy	-10361
▁Techn	-10362
▁6'	-10363
▁glare	-10364
▁pee	-10365
▁coast	-10366
▁Saturday	-10367
▁arguments	-10368
something	-10369
▁unfor	-10370
abs	-10371
▁preference	-10372
▁defense	-10373
▁scholars	-10374
▁pizza	-10375
▁stocking	-10376
▁focusing	-10377
▁crank	-10378
▁Jour	-10379
▁Deep	-10380
▁melt	-10381
▁popping	-10382
▁bullet	-10383
drop	-10384
▁Disc	-10385
▁sandw	-10386
▁tighter	-10387
▁separated	-10388
▁SOME	-10389
▁edit	-10390
▁calib	-10391
▁Rome	-10392
▁Allen	-10393
▁allergies	-10394
LO	-10395
▁yours	-10396
▁award	-10397
ONEY	-10398
▁individually	-10399
▁beep	-10400
▁Bottom	-10401
install	-10402
▁Len	-10403
▁flush	-10404
▁receipt	-10405
▁Start	-10406
▁Cover	-10407
Des	-10408
▁gal	-10409
▁wherever	-10410
▁Sin	-10411
▁Mass	-10412
▁zippers	-10413
▁Conn	-10414
▁chrome	-10415
▁primer	-10416
▁cul	-10417
▁engineering	-10418
▁artific	-10419
▁explic	-10420
▁bucket	-10421
iler	-10422
▁settled	-10423
▁wi	-10424
mediate	-10425
▁plush	-10426
last	-10427
ocking	-10428
▁realizes	-10429
▁unrealistic	-10430
▁facial	-10431
▁doctors	-10432
iation	-10433
class	-10434
▁magazines	-10435
▁shall	-10436
▁instructor	-10437
▁closest	-10438
anged	-10439
oofer	-10440
▁90'	-10441
▁climax	-10442
▁president	-10443
▁Tosh	-10444
▁raising	-10445
▁captivated	-10446
▁FE	-10447
INT	-10448
▁4,	-10449
▁wars	-10450
▁revealing	-10451
done	-10452
▁laughter	-10453
"!	-10454
▁goo	-10455
andora	-10456
▁exploring	-10457
Most	-10458
▁hurts	-10459
▁RP	-10460
▁manufacturers	-10461
Che	-10462
▁requirements	-10463
▁chances	-10464
▁bizarre	-10465
▁dos	-10466
▁tennis	-10467
west	-10468
▁poetic	-10469
▁Defin	-10470
both	-10471
▁Needed	-10472
ias	-10473
apoint	-10474
ught	-10475
▁Sab	-10476
▁bland	-10477
lee	-10478
▁placement	-10479
▁watt	-10480
▁discusses	-10481
▁ocean	-10482
▁southern	-10483
▁species	-10484
ludes	-10485
▁lil	-10486
▁enorm	-10487
▁KNOW	-10488
▁dresses	-10489
▁Ger	-10490
▁Mount	-10491
▁discl	-10492
▁luggage	-10493
pop	-10494
▁victims	-10495
scar	-10496
uled	-10497
▁Holds	-10498
▁expansion	-10499
augh	-10500
▁Tha	-10501
▁emphasis	-10502
▁laptops	-10503
▁readily	-10504
▁economy	-10505
▁Hold	-10506
▁trained	-10507
▁EP	-10508
issed	-10509
▁committed	-10510
▁Emp	-10511
▁extract	-10512
rays	-10513
▁biblical	-10514
▁heartfelt	-10515
ART	-10516
▁invested	-10517
▁figuring	-10518
▁Boys	-10519
itled	-10520
▁Sea	-10521
idently	-10522
urious	-10523
▁satisfaction	-10524
▁cure	-10525
▁mechanical	-10526
▁faint	-10527
▁neutral	-10528
▁struck	-10529
▁thousand	-10530
▁involves	-10531
▁SAT	-10532
▁Harris	-10533
MB	-10534
ertainly	-10535
▁Jimmy	-10536
▁Julia	-10537
)!	-10538
pectives	-10539
▁smoother	-10540
▁originals	-10541
▁websites	-10542
▁highs	-10543
▁jealous	-10544
▁dot	-10545
▁exposure	-10546
▁havent	-10547
ichol	-10548
▁maintenance	-10549
cal	-10550
isin	-10551
icians	-10552
▁ignored	-10553
▁Ess	-10554
▁affair	-10555
▁lam	-10556
ember	-10557
▁xbox	-10558
obe	-10559
▁Granted	-10560
▁Mir	-10561
▁Core	-10562
▁Flash	-10563
▁Comfortable	-10564
▁clin	-10565
▁darkness	-10566
▁Ap	-10567
6,	-10568
▁estate	-10569
▁Lucy	-10570
▁awe	-10571
▁brilliantly	-10572
▁beings	-10573
▁moderate	-10574
▁backs	-10575
▁noises	-10576
▁Coffee	-10577
Dis	-10578
▁communicate	-10579
tes	-10580
▁Clear	-10581
▁Space	-10582
▁Paper	-10583
▁orders	-10584
▁fitness	-10585
▁Cable	-10586
▁americ	-10587
▁preparing	-10588
NT	-10589
rich	-10590
▁Geor	-10591
▁pupp	-10592
▁athlet	-10593
inson	-10594
:"	-10595
▁Bear	-10596
▁trave	-10597
▁freezing	-10598
▁unusable	-10599
▁hubby	-10600
▁Grey	-10601
▁gran	-10602
▁Eas	-10603
unted	-10604
▁earned	-10605
▁viewpoint	-10606
▁manufacturing	-10607
▁awaiting	-10608
▁limits	-10609
▁randomly	-10610
▁complement	-10611
▁challenged	-10612
▁AGAIN	-10613
▁Further	-10614
▁anch	-10615
sect	-10616
▁hangs	-10617
GA	-10618
▁mice	-10619
▁manager	-10620
phony	-10621
▁Ven	-10622
▁occurred	-10623
▁scripture	-10624
▁windshield	-10625
▁Cu	-10626
MS	-10627
rary	-10628
▁responsibility	-10629
itional	-10630
▁Bull	-10631
▁iT	-10632
▁default	-10633
oir	-10634
▁lightly	-10635
▁folding	-10636
▁Golden	-10637
▁Matthe	-10638
inally	-10639
▁studied	-10640
▁superf	-10641
hal	-10642
iant	-10643
bay	-10644
▁rebo	-10645
iens	-10646
lean	-10647
▁$200	-10648
ORY	-10649
▁develops	-10650
▁Vegas	-10651
▁homework	-10652
▁chal	-10653
▁FIR	-10654
▁fights	-10655
▁wishes	-10656
▁smelling	-10657
▁steep	-10658
▁chef	-10659
▁October	-10660
▁Leg	-10661
▁murdered	-10662
▁Money	-10663
▁nightmare	-10664
▁bundle	-10665
▁headache	-10666
prising	-10667
rup	-10668
▁sooo	-10669
▁Pow	-10670
▁lux	-10671
▁flexibility	-10672
▁license	-10673
▁disappeared	-10674
▁depends	-10675
▁Mult	-10676
▁locate	-10677
▁Emily	-10678
omeday	-10679
▁chase	-10680
▁orchestr	-10681
bone	-10682
▁Country	-10683
ASS	-10684
▁bones	-10685
▁Snow	-10686
▁exceptionally	-10687
▁scroll	-10688
▁Woman	-10689
▁Jazz	-10690
▁solving	-10691
▁Size	-10692
▁scarf	-10693
orders	-10694
▁PD	-10695
▁confir	-10696
-7	-10697
▁aest	-10698
▁ingredient	-10699
▁controvers	-10700
▁Wolf	-10701
▁anecdotes	-10702
▁LOOK	-10703
▁OFF	-10704
▁producing	-10705
▁traum	-10706
▁1/3	-10707
▁coff	-10708
▁hence	-10709
▁Aud	-10710
▁pricing	-10711
▁costumes	-10712
▁Sat	-10713
▁NYC	-10714
▁rabb	-10715
▁veggies	-10716
▁pepper	-10717
▁prone	-10718
▁Holmes	-10719
▁Trust	-10720
▁Mix	-10721
▁Sex	-10722
▁Alan	-10723
▁equivalent	-10724
emption	-10725
▁Karen	-10726
NA	-10727
Recommend	-10728
▁observations	-10729
itution	-10730
▁gospel	-10731
▁refurb	-10732
aska	-10733
▁confirm	-10734
▁Dylan	-10735
▁slips	-10736
pur	-10737
▁resolve	-10738
▁elev	-10739
▁Years	-10740
▁Written	-10741
▁Edd	-10742
▁Volume	-10743
pan	-10744
▁Buff	-10745
▁absurd	-10746
ATCH	-10747
▁retract	-10748
▁flee	-10749
▁designer	-10750
Review	-10751
▁waff	-10752
▁Kitchen	-10753
▁combines	-10754
▁explos	-10755
▁vulner	-10756
▁Sturdy	-10757
▁MONEY	-10758
buy	-10759
▁34	-10760
▁($	-10761
nox	-10762
▁margin	-10763
▁exists	-10764
▁client	-10765
umbersome	-10766
▁senior	-10767
aa	-10768
▁Cant	-10769
fined	-10770
▁Picture	-10771
▁carbon	-10772
▁storing	-10773
▁cared	-10774
▁immers	-10775
▁Job	-10776
▁phrase	-10777
▁interactions	-10778
▁swear	-10779
▁orchestra	-10780
▁quantity	-10781
?).	-10782
▁Laura	-10783
▁glossy	-10784
mates	-10785
▁YEAR	-10786
▁zone	-10787
▁stopping	-10788
▁ram	-10789
▁Post	-10790
voking	-10791
▁psychology	-10792
▁Additionally	-10793
▁Luke	-10794
▁Neil	-10795
▁GR	-10796
Black	-10797
▁Shakes	-10798
▁ware	-10799
▁doubts	-10800
▁newspaper	-10801
▁Ghost	-10802
▁bookstore	-10803
▁peanut	-10804
▁combine	-10805
OCK	-10806
why	-10807
▁laws	-10808
▁mop	-10809
▁hats	-10810
▁infect	-10811
▁settle	-10812
▁dip	-10813
▁humour	-10814
▁Mountain	-10815
▁Twilight	-10816
▁font	-10817
▁Stephan	-10818
aust	-10819
!!!!!!!	-10820
▁backwards	-10821
▁unsure	-10822
nters	-10823
▁Publ	-10824
▁gee	-10825
▁aging	-10826
▁nap	-10827
▁pacing	-10828
▁tendency	-10829
▁Ko	-10830
▁suffers	-10831
▁Steel	-10832
▁lifting	-10833
▁thermometer	-10834
▁english	-10835
▁perspectives	-10836
▁comforter	-10837
-6	-10838
▁missions	-10839
▁succ	-10840
▁hopeful	-10841
▁Kept	-10842
▁bell	-10843
▁meter	-10844
Man	-10845
500	-10846
▁Captain	-10847
gb	-10848
▁sadness	-10849
▁needle	-10850
ISH	-10851
God	-10852
ags	-10853
▁anxiety	-10854
▁google	-10855
▁prevents	-10856
▁brick	-10857
esc	-10858
▁Went	-10859
▁alter	-10860
Ed	-10861
▁6.	-10862
▁assass	-10863
▁contempl	-10864
▁Carter	-10865
mus	-10866
cup	-10867
▁appetite	-10868
Best	-10869
▁Characters	-10870
New	-10871
▁cities	-10872
▁lacked	-10873
▁measured	-10874
▁LONG	-10875
▁accord	-10876
▁Patterson	-10877
▁pale	-10878
▁Morgan	-10879
▁OMG	-10880
▁hack	-10881
▁devast	-10882
▁Elvis	-10883
iments	-10884
Mart	-10885
▁competitive	-10886
▁fifth	-10887
tle	-10888
▁Gary	-10889
▁Vampire	-10890
▁STILL	-10891
▁mate	-10892
▁outrage	-10893
▁cumbersome	-10894
▁skipping	-10895
DV	-10896
thern	-10897
WH	-10898
▁SHE	-10899
▁maneu	-10900
▁delay	-10901
//	-10902
help	-10903
▁Vista	-10904
▁Andy	-10905
▁Times	-10906
essert	-10907
peare	-10908
▁rounds	-10909
▁reminiscent	-10910
▁autobi	-10911
▁remained	-10912
▁werew	-10913
▁na	-10914
▁tones	-10915
▁defend	-10916
iable	-10917
▁shaft	-10918
▁stellar	-10919
▁SL	-10920
▁bark	-10921
▁Hey	-10922
▁1950	-10923
elson	-10924
▁singles	-10925
▁poem	-10926
▁tomat	-10927
▁dispenser	-10928
▁Gill	-10929
▁yarn	-10930
Cha	-10931
atly	-10932
▁OVER	-10933
▁critics	-10934
▁Truth	-10935
▁spout	-10936
▁overse	-10937
uffle	-10938
provoking	-10939
ede	-10940
▁newborn	-10941
▁borrowed	-10942
▁succeed	-10943
▁ceramic	-10944
▁pendant	-10945
PT	-10946
▁mere	-10947
▁Iraq	-10948
▁tilt	-10949
chet	-10950
iversary	-10951
aky	-10952
▁kicks	-10953
▁Metal	-10954
fun	-10955
▁nipp	-10956
really	-10957
fa	-10958
▁engrossing	-10959
▁Toshiba	-10960
▁fountain	-10961
▁2008	-10962
ref	-10963
▁cooks	-10964
▁incident	-10965
▁spinning	-10966
▁Roberts	-10967
jection	-10968
▁chron	-10969
Har	-10970
▁Ted	-10971
big	-10972
)...	-10973
▁retire	-10974
▁knocked	-10975
His	-10976
▁innovative	-10977
▁difficulties	-10978
▁bookshe	-10979
▁(19	-10980
▁complexity	-10981
▁continually	-10982
ties	-10983
▁kits	-10984
▁GAME	-10985
▁circuit	-10986
▁render	-10987
▁passes	-10988
▁damp	-10989
▁hobby	-10990
prints	-10991
▁DJ	-10992
▁vitamin	-10993
▁bes	-10994
your	-10995
▁officer	-10996
▁Olymp	-10997
appro	-10998
▁toothbrush	-10999
▁encounters	-11000
▁premium	-11001
▁existed	-11002
▁WA	-11003
▁curl	-11004
▁fought	-11005
hanger	-11006
▁dear	-11007
cials	-11008
around	-11009
▁Getting	-11010
▁mothers	-11011
▁kills	-11012
▁crunch	-11013
▁counting	-11014
▁inserted	-11015
lie	-11016
▁nonsense	-11017
nic	-11018
▁Brook	-11019
anne	-11020
▁spoilers	-11021
▁carp	-11022
▁nic	-11023
▁indo	-11024
aneously	-11025
phy	-11026
▁si	-11027
▁closes	-11028
▁neatly	-11029
▁removal	-11030
user	-11031
▁summar	-11032
▁artificial	-11033
▁interests	-11034
▁symptoms	-11035
▁glance	-11036
▁deciding	-11037
▁assuming	-11038
▁goods	-11039
▁taller	-11040
▁scare	-11041
▁candid	-11042
▁ribb	-11043
▁tomorrow	-11044
▁influenced	-11045
▁bean	-11046
ancing	-11047
▁truths	-11048
▁grabs	-11049
▁forgiveness	-11050
▁thigh	-11051
▁manufactured	-11052
▁confront	-11053
▁weighs	-11054
haw	-11055
▁SER	-11056
▁inferior	-11057
▁slo	-11058
▁conclusions	-11059
▁palm	-11060
▁Los	-11061
▁ebook	-11062
▁Ju	-11063
ests	-11064
ji	-11065
▁silky	-11066
▁clearer	-11067
▁riffs	-11068
▁Album	-11069
▁faithful	-11070
▁depict	-11071
▁Side	-11072
▁Cut	-11073
▁odds	-11074
▁Skin	-11075
▁shy	-11076
▁brake	-11077
▁Jordan	-11078
▁curiosity	-11079
▁Ultra	-11080
▁justify	-11081
▁mos	-11082
▁Ren	-11083
▁hanger	-11084
▁Miche	-11085
▁Cir	-11086
▁exploration	-11087
▁compress	-11088
!.	-11089
such	-11090
▁Cub	-11091
▁expectation	-11092
▁optical	-11093
amiliar	-11094
▁sevent	-11095
▁Installation	-11096
▁mentions	-11097
iamond	-11098
▁Nichol	-11099
▁eliminate	-11100
▁nurse	-11101
▁PA	-11102
▁refrigerator	-11103
John	-11104
▁Year	-11105
▁lyrical	-11106
die	-11107
▁seper	-11108
▁property	-11109
▁elementary	-11110
▁Cong	-11111
▁rubb	-11112
▁sacrifice	-11113
▁BACK	-11114
▁shel	-11115
▁rainy	-11116
▁Waste	-11117
▁arom	-11118
▁regards	-11119
▁spoken	-11120
▁motivation	-11121
▁THERE	-11122
▁recon	-11123
sons	-11124
▁Design	-11125
▁burner	-11126
▁scalp	-11127
▁wouldnt	-11128
▁overhe	-11129
FL	-11130
ifully	-11131
▁screaming	-11132
▁blessing	-11133
▁$7	-11134
▁smallest	-11135
▁wings	-11136
leased	-11137
▁slice	-11138
estic	-11139
▁inha	-11140
▁pitch	-11141
thank	-11142
▁circles	-11143
▁skipped	-11144
▁sandal	-11145
▁tossed	-11146
▁triumph	-11147
▁angel	-11148
▁Patrick	-11149
▁November	-11150
▁couples	-11151
▁centered	-11152
▁dense	-11153
attoo	-11154
▁preparation	-11155
▁realizing	-11156
▁yo	-11157
athan	-11158
▁professionals	-11159
▁termin	-11160
▁roughly	-11161
▁conventional	-11162
▁intricate	-11163
▁feather	-11164
▁bake	-11165
▁cds	-11166
▁stating	-11167
▁Ange	-11168
olt	-11169
ocative	-11170
▁genres	-11171
▁hates	-11172
▁savings	-11173
▁Howard	-11174
▁elderly	-11175
▁Latin	-11176
▁Others	-11177
▁outlets	-11178
▁rigid	-11179
▁practicing	-11180
▁slept	-11181
▁pencils	-11182
:1)	-11183
▁discovering	-11184
dog	-11185
redict	-11186
▁193	-11187
▁vegan	-11188
▁Conc	-11189
▁trunk	-11190
▁subscription	-11191
▁IR	-11192
Se	-11193
▁pointless	-11194
▁definet	-11195
gling	-11196
▁reun	-11197
iber	-11198
▁Fan	-11199
pa	-11200
▁cuff	-11201
nament	-11202
intendo	-11203
▁decre	-11204
▁prob	-11205
Second	-11206
▁Science	-11207
▁aunt	-11208
▁candles	-11209
▁Script	-11210
▁reaches	-11211
▁Sounds	-11212
▁FREE	-11213
wen	-11214
▁Roku	-11215
CELL	-11216
▁Feels	-11217
▁delete	-11218
▁Buck	-11219
▁Dance	-11220
▁keyboards	-11221
▁endearing	-11222
▁pinch	-11223
▁Monster	-11224
FE	-11225
▁indicate	-11226
▁supportive	-11227
▁toothp	-11228
▁overlooked	-11229
▁soldier	-11230
▁HDTV	-11231
▁coach	-11232
▁advertis	-11233
▁rubbing	-11234
▁Battle	-11235
▁wrinkles	-11236
▁HIS	-11237
▁transaction	-11238
▁swallow	-11239
▁rotate	-11240
erable	-11241
lude	-11242
▁quilt	-11243
eware	-11244
▁altogether	-11245
▁loosen	-11246
held	-11247
▁250	-11248
▁CA	-11249
▁mm	-11250
▁broadcast	-11251
▁crisis	-11252
ifications	-11253
▁FIRST	-11254
▁divorce	-11255
▁ballads	-11256
ww	-11257
aud	-11258
▁established	-11259
▁McG	-11260
did	-11261
▁swivel	-11262
erie	-11263
▁introduct	-11264
▁catches	-11265
▁blink	-11266
▁posts	-11267
▁san	-11268
▁humble	-11269
▁Thankfully	-11270
▁Heavy	-11271
▁punct	-11272
▁liberal	-11273
▁Amish	-11274
▁Delivery	-11275
▁smoking	-11276
10.	-11277
▁resulting	-11278
▁filmed	-11279
▁mellow	-11280
installed	-11281
▁Rush	-11282
ierce	-11283
▁disposable	-11284
▁unst	-11285
▁verse	-11286
▁heartbreaking	-11287
▁explicit	-11288
▁Ireland	-11289
▁cassette	-11290
▁agreed	-11291
▁flowing	-11292
▁obscure	-11293
▁MANY	-11294
▁animated	-11295
▁reflects	-11296
ographical	-11297
icop	-11298
riel	-11299
▁discom	-11300
▁Pil	-11301
▁attacks	-11302
urig	-11303
▁Ten	-11304
▁chore	-11305
zil	-11306
▁Six	-11307
erence	-11308
▁Plenty	-11309
abel	-11310
kee	-11311
ito	-11312
▁ITS	-11313
▁irre	-11314
▁Wonder	-11315
▁panels	-11316
▁jaw	-11317
▁recognition	-11318
▁Kenned	-11319
▁LE	-11320
▁humidity	-11321
▁Gil	-11322
▁graduate	-11323
▁Shakespeare	-11324
PA	-11325
▁lawyer	-11326
▁plugging	-11327
▁Christopher	-11328
etc	-11329
ugh	-11330
ccer	-11331
▁unfolds	-11332
▁injury	-11333
▁ridiculously	-11334
▁pride	-11335
"),	-11336
▁Wayne	-11337
▁lever	-11338
▁$8	-11339
perfect	-11340
▁TWO	-11341
▁Dra	-11342
▁Sean	-11343
▁interfere	-11344
▁Navy	-11345
▁Vi	-11346
▁PRICE	-11347
▁Arthur	-11348
▁exquis	-11349
NING	-11350
commend	-11351
▁criminal	-11352
▁salad	-11353
▁heft	-11354
▁convince	-11355
▁disks	-11356
▁Company	-11357
▁BEA	-11358
▁romances	-11359
▁renew	-11360
▁guilt	-11361
▁largest	-11362
asket	-11363
▁Beyond	-11364
omer	-11365
▁excessive	-11366
backs	-11367
lli	-11368
▁coaster	-11369
UD	-11370
elic	-11371
▁Advent	-11372
▁reluctant	-11373
▁HAPP	-11374
othy	-11375
rend	-11376
▁faulty	-11377
worth	-11378
▁hrs	-11379
▁masterful	-11380
▁Perry	-11381
▁Considering	-11382
▁accommodate	-11383
▁Jerry	-11384
▁cliche	-11385
▁fuzzy	-11386
▁Tam	-11387
had	-11388
▁editions	-11389
▁Ipod	-11390
▁execution	-11391
▁Hero	-11392
▁hardwood	-11393
▁biased	-11394
▁discomfort	-11395
▁joints	-11396
▁offend	-11397
▁tint	-11398
▁spoiled	-11399
girl	-11400
▁quart	-11401
▁suicide	-11402
▁inacc	-11403
▁fortunate	-11404
▁Ian	-11405
imal	-11406
▁Anderson	-11407
▁Krist	-11408
▁Nancy	-11409
▁Inf	-11410
▁stability	-11411
▁comed	-11412
▁bells	-11413
▁dinosaur	-11414
▁industrial	-11415
▁leash	-11416
▁cartoons	-11417
▁supplier	-11418
▁mand	-11419
▁wrapping	-11420
▁Tar	-11421
▁rendition	-11422
▁Mond	-11423
▁misunder	-11424
uxe	-11425
▁chorus	-11426
HA	-11427
ector	-11428
▁Days	-11429
umbling	-11430
▁consuming	-11431
▁exterior	-11432
▁snacks	-11433
▁overpower	-11434
▁Kudos	-11435
▁millions	-11436
creen	-11437
▁documentation	-11438
▁Ton	-11439
▁addressed	-11440
▁aliens	-11441
tender	-11442
DR	-11443
pse	-11444
▁aged	-11445
▁organize	-11446
▁breathing	-11447
ocks	-11448
Who	-11449
▁Revolution	-11450
▁dive	-11451
elle	-11452
▁grandfather	-11453
.99	-11454
lig	-11455
▁reverse	-11456
onies	-11457
mg	-11458
▁fundamental	-11459
▁Incred	-11460
▁Princess	-11461
▁fart	-11462
▁historic	-11463
▁dragged	-11464
▁pause	-11465
▁murders	-11466
▁Hawaii	-11467
▁sponge	-11468
▁Point	-11469
▁trapped	-11470
▁Vers	-11471
got	-11472
▁sends	-11473
▁heartwarming	-11474
wire	-11475
▁funniest	-11476
▁Pick	-11477
▁visually	-11478
▁cuz	-11479
▁yummy	-11480
▁coup	-11481
▁flies	-11482
▁Pass	-11483
▁kidding	-11484
orous	-11485
▁Bright	-11486
▁demonstrates	-11487
▁sunlight	-11488
watch	-11489
▁Barbara	-11490
▁simplistic	-11491
▁Screen	-11492
▁glitter	-11493
piring	-11494
▁GU	-11495
▁violin	-11496
▁crashes	-11497
▁8.5	-11498
heart	-11499
▁curly	-11500
▁twelve	-11501
▁Imagine	-11502
▁$60	-11503
▁lace	-11504
▁scores	-11505
▁headed	-11506
▁Blake	-11507
▁adopted	-11508
▁population	-11509
▁gro	-11510
▁Rand	-11511
▁shr	-11512
▁consult	-11513
▁belongs	-11514
-15	-11515
▁geared	-11516
▁breed	-11517
zard	-11518
resents	-11519
▁stem	-11520
▁Nelson	-11521
▁relaxed	-11522
▁drip	-11523
▁Past	-11524
Ad	-11525
iration	-11526
▁BETTER	-11527
▁contacts	-11528
▁burst	-11529
▁nozz	-11530
Look	-11531
▁Bravo	-11532
▁GT	-11533
▁partially	-11534
▁pret	-11535
▁philosophical	-11536
▁Adams	-11537
▁coats	-11538
bound	-11539
▁Nevertheless	-11540
▁basketball	-11541
▁depicted	-11542
eting	-11543
▁Republic	-11544
isted	-11545
▁credits	-11546
Maybe	-11547
▁believer	-11548
▁obstacles	-11549
▁Valent	-11550
▁porch	-11551
color	-11552
irable	-11553
▁conservative	-11554
▁tore	-11555
▁sheath	-11556
▁patio	-11557
▁legendary	-11558
ownt	-11559
▁Mario	-11560
▁unint	-11561
▁Griff	-11562
▁objective	-11563
▁teachings	-11564
▁climate	-11565
▁dessert	-11566
▁overseas	-11567
▁remake	-11568
▁essay	-11569
▁rave	-11570
▁Russell	-11571
▁bounce	-11572
▁BEC	-11573
bles	-11574
▁illumin	-11575
▁stretching	-11576
▁September	-11577
▁narration	-11578
▁reccommend	-11579
▁controlled	-11580
-12	-11581
parents	-11582
unior	-11583
▁Tab	-11584
cribed	-11585
▁determination	-11586
▁Bud	-11587
▁strand	-11588
Box	-11589
▁blond	-11590
packed	-11591
CELLENT	-11592
Sha	-11593
19	-11594
▁Scar	-11595
▁estimated	-11596
▁explo	-11597
▁Chapter	-11598
ioned	-11599
▁Line	-11600
aware	-11601
▁subsequent	-11602
▁breathe	-11603
amon	-11604
▁Girls	-11605
iate	-11606
▁2007	-11607
▁theirs	-11608
▁gamer	-11609
▁promising	-11610
▁Jessica	-11611
▁divided	-11612
▁approaches	-11613
▁Hoo	-11614
▁legit	-11615
▁composer	-11616
▁subtitles	-11617
▁jars	-11618
▁bom	-11619
▁tower	-11620
▁Verizon	-11621
▁Jill	-11622
▁dys	-11623
▁underlying	-11624
▁BAD	-11625
▁eyel	-11626
▁fet	-11627
▁Ipad	-11628
▁PURCH	-11629
▁crush	-11630
▁Gives	-11631
▁Kid	-11632
▁outdated	-11633
itched	-11634
▁42	-11635
▁soda	-11636
home	-11637
▁SW	-11638
▁drove	-11639
▁compelled	-11640
▁canvas	-11641
▁Installed	-11642
▁porn	-11643
▁considerably	-11644
▁GOT	-11645
Mr	-11646
ifty	-11647
Me	-11648
▁urge	-11649
▁configuration	-11650
▁conve	-11651
▁erg	-11652
▁sturdier	-11653
▁Def	-11654
▁fashioned	-11655
▁sewn	-11656
▁indoors	-11657
▁glory	-11658
▁fame	-11659
▁consideration	-11660
▁producer	-11661
▁grammatical	-11662
▁Organ	-11663
▁Winter	-11664
▁definitive	-11665
▁executed	-11666
▁expanded	-11667
▁1-	-11668
▁mathe	-11669
▁referred	-11670
▁motivated	-11671
▁2009	-11672
▁responded	-11673
▁Ross	-11674
icycle	-11675
▁grounds	-11676
RY	-11677
▁Ve	-11678
▁unple	-11679
▁Stephanie	-11680
▁gaps	-11681
▁scenario	-11682
▁Shipped	-11683
▁flood	-11684
anes	-11685
▁groove	-11686
lia	-11687
respond	-11688
▁surge	-11689
▁verses	-11690
▁Oper	-11691
EAL	-11692
change	-11693
▁Julie	-11694
▁tuner	-11695
▁OTHER	-11696
▁Droid	-11697
▁whereas	-11698
best	-11699
▁ballad	-11700
agg	-11701
▁vibration	-11702
▁fooled	-11703
▁river	-11704
▁casting	-11705
▁catalog	-11706
▁assess	-11707
▁persons	-11708
▁NOTHING	-11709
▁COULD	-11710
▁integrity	-11711
▁foil	-11712
WAYS	-11713
▁unders	-11714
atoes	-11715
▁Columb	-11716
▁Event	-11717
▁Third	-11718
▁Half	-11719
.2	-11720
▁printers	-11721
▁coin	-11722
▁trading	-11723
▁800	-11724
▁toddlers	-11725
▁reactions	-11726
ocr	-11727
▁lively	-11728
▁administ	-11729
uther	-11730
▁dimension	-11731
▁Kennedy	-11732
▁cereal	-11733
▁aston	-11734
▁launch	-11735
▁wraps	-11736
entials	-11737
almost	-11738
▁unravel	-11739
▁diagrams	-11740
▁rural	-11741
▁dare	-11742
▁camc	-11743
▁Yog	-11744
▁entre	-11745
▁wealthy	-11746
▁cookbooks	-11747
adle	-11748
▁minus	-11749
▁realism	-11750
▁realm	-11751
AUSE	-11752
▁homemade	-11753
▁sequences	-11754
▁represented	-11755
▁simult	-11756
▁lu	-11757
▁Sleep	-11758
▁Gris	-11759
▁wheat	-11760
▁Phone	-11761
idel	-11762
▁scenarios	-11763
▁AAA	-11764
▁intermediate	-11765
▁understands	-11766
▁Oscar	-11767
▁frizz	-11768
affe	-11769
▁backed	-11770
MO	-11771
▁WD	-11772
▁Total	-11773
ria	-11774
Pe	-11775
▁stun	-11776
▁stages	-11777
▁$25	-11778
▁expression	-11779
igs	-11780
▁libro	-11781
▁fles	-11782
called	-11783
▁Init	-11784
▁Sci	-11785
▁spine	-11786
check	-11787
▁RV	-11788
ugging	-11789
inates	-11790
▁conqu	-11791
▁soles	-11792
▁compens	-11793
ften	-11794
▁awsome	-11795
pm	-11796
▁Si	-11797
▁Wireless	-11798
▁hing	-11799
▁maneuver	-11800
▁Jr	-11801
▁refuse	-11802
▁browsing	-11803
ko	-11804
▁kitty	-11805
▁resemb	-11806
▁Francisco	-11807
Two	-11808
▁Bosch	-11809
▁TA	-11810
▁hips	-11811
▁robust	-11812
▁Hart	-11813
▁RO	-11814
▁AFTER	-11815
teller	-11816
▁Biblical	-11817
▁Oil	-11818
▁endings	-11819
▁RCA	-11820
▁educated	-11821
▁begun	-11822
▁fruits	-11823
▁Century	-11824
Finally	-11825
▁FBI	-11826
Br	-11827
▁fewer	-11828
▁guitarist	-11829
ya	-11830
▁dynamics	-11831
▁relatable	-11832
▁SSD	-11833
Mar	-11834
▁utility	-11835
▁Lex	-11836
▁formed	-11837
▁simpler	-11838
▁encouraged	-11839
▁precision	-11840
▁Linda	-11841
▁languages	-11842
lful	-11843
▁markers	-11844
▁Jacob	-11845
Int	-11846
▁seasoned	-11847
asion	-11848
▁husbands	-11849
▁beds	-11850
Inst	-11851
▁dice	-11852
▁workmanship	-11853
▁codes	-11854
▁formal	-11855
▁feminine	-11856
▁failing	-11857
▁strain	-11858
▁forest	-11859
▁outfits	-11860
ructions	-11861
▁polar	-11862
▁diary	-11863
▁arthritis	-11864
35	-11865
dis	-11866
mic	-11867
▁Certainly	-11868
▁Gal	-11869
▁abused	-11870
thernet	-11871
oqu	-11872
▁Fer	-11873
jam	-11874
▁Commun	-11875
▁recipient	-11876
itate	-11877
▁awareness	-11878
▁peop	-11879
▁neglect	-11880
▁producers	-11881
300	-11882
plus	-11883
izable	-11884
▁groom	-11885
▁Camera	-11886
▁motherboard	-11887
▁casing	-11888
▁factual	-11889
▁Epson	-11890
xy	-11891
YI	-11892
small	-11893
▁continuation	-11894
▁discussions	-11895
▁Asian	-11896
▁65	-11897
▁WiFi	-11898
▁someday	-11899
▁dressed	-11900
▁grandkids	-11901
▁heated	-11902
Her	-11903
ser	-11904
▁Anthony	-11905
▁Arab	-11906
▁regrets	-11907
acies	-11908
▁destro	-11909
JOY	-11910
▁distortion	-11911
▁loops	-11912
▁1-2	-11913
▁represents	-11914
▁relatives	-11915
oster	-11916
▁Daughter	-11917
orie	-11918
▁mistaken	-11919
▁Romance	-11920
▁anticipation	-11921
leans	-11922
▁influences	-11923
▁dil	-11924
▁voltage	-11925
▁Claire	-11926
▁Recently	-11927
▁wins	-11928
▁oldest	-11929
▁Afghan	-11930
▁corrupt	-11931
▁tremendously	-11932
achable	-11933
▁Action	-11934
▁melted	-11935
▁EASY	-11936
whe	-11937
▁horribly	-11938
▁encourages	-11939
▁believing	-11940
▁immig	-11941
▁rental	-11942
▁breaker	-11943
▁martial	-11944
-9	-11945
Mac	-11946
▁variations	-11947
▁Sharp	-11948
▁owns	-11949
▁wool	-11950
OTHER	-11951
▁hinge	-11952
▁intertw	-11953
.2)	-11954
▁Talk	-11955
▁helicop	-11956
▁chains	-11957
▁commitment	-11958
▁Alexander	-11959
▁Maggie	-11960
▁slipped	-11961
isons	-11962
▁Force	-11963
▁attaches	-11964
▁fest	-11965
▁disli	-11966
▁bookshelf	-11967
▁leaf	-11968
▁nearby	-11969
▁decal	-11970
piracy	-11971
HO	-11972
esis	-11973
ights	-11974
22	-11975
▁paragraphs	-11976
▁MOVIE	-11977
▁Aside	-11978
▁600	-11979
.).	-11980
▁Dont	-11981
▁rash	-11982
thanks	-11983
pending	-11984
▁throat	-11985
▁Pandora	-11986
uated	-11987
▁lengthy	-11988
▁vine	-11989
▁Sup	-11990
▁2014	-11991
▁Depot	-11992
aron	-11993
▁Broad	-11994
▁Vis	-11995
▁frightening	-11996
▁parallel	-11997
atellite	-11998
▁french	-11999
▁hurting	-12000
▁frequency	-12001
▁Tea	-12002
▁engineer	-12003
▁applies	-12004
▁eats	-12005
▁traveled	-12006
▁progressive	-12007
iger	-12008
iend	-12009
▁ward	-12010
▁airplane	-12011
▁ladder	-12012
▁38	-12013
▁smoothies	-12014
▁Tree	-12015
does	-12016
otte	-12017
▁wobb	-12018
▁juicer	-12019
amboo	-12020
BA	-12021
▁haha	-12022
▁insurance	-12023
▁Stewart	-12024
▁preschool	-12025
▁horrific	-12026
▁aer	-12027
▁portions	-12028
leg	-12029
▁staple	-12030
▁Pearl	-12031
▁continuous	-12032
flow	-12033
▁Drive	-12034
▁dece	-12035
school	-12036
!!!!!!!!!!!!!!!!	-12037
▁Songs	-12038
▁considerable	-12039
"?	-12040
18	-12041
▁advised	-12042
▁4-5	-12043
▁rect	-12044
▁hill	-12045
▁Clay	-12046
▁MC	-12047
▁refuses	-12048
ti	-12049
▁rim	-12050
▁1970	-12051
ima	-12052
▁youngest	-12053
▁craving	-12054
▁restart	-12055
▁lust	-12056
▁Peace	-12057
▁syrup	-12058
▁recreat	-12059
▁bristles	-12060
uls	-12061
▁strike	-12062
front	-12063
▁Media	-12064
▁soak	-12065
woofer	-12066
▁backyard	-12067
▁Mess	-12068
▁beast	-12069
▁Costco	-12070
una	-12071
▁EVEN	-12072
▁coord	-12073
▁investing	-12074
▁trusted	-12075
charge	-12076
▁soccer	-12077
▁bending	-12078
▁ain	-12079
▁correspond	-12080
▁monthly	-12081
▁slightest	-12082
▁containing	-12083
▁cowboy	-12084
cake	-12085
▁salon	-12086
▁Testament	-12087
▁fuss	-12088
▁unfamiliar	-12089
▁pac	-12090
▁souls	-12091
bye	-12092
▁flattering	-12093
▁dining	-12094
▁refurbished	-12095
▁Problem	-12096
large	-12097
▁Whit	-12098
▁smartphone	-12099
▁dimin	-12100
rics	-12101
eners	-12102
▁SI	-12103
ando	-12104
these	-12105
▁functioning	-12106
▁chill	-12107
▁fluffy	-12108
▁cracking	-12109
ipher	-12110
▁converter	-12111
isinart	-12112
icion	-12113
▁Terry	-12114
▁enormous	-12115
▁ED	-12116
mann	-12117
▁Nora	-12118
▁Iphone	-12119
▁pou	-12120
▁courses	-12121
▁reply	-12122
▁teams	-12123
▁Guy	-12124
▁improving	-12125
▁desires	-12126
▁q	-12127
▁Cannot	-12128
▁curls	-12129
▁Pure	-12130
organ	-12131
▁cinemat	-12132
▁sights	-12133
▁disgusting	-12134
▁recorder	-12135
ioneer	-12136
▁Lake	-12137
▁ORDER	-12138
▁mountains	-12139
▁Wed	-12140
otal	-12141
▁excell	-12142
▁Diamond	-12143
▁revis	-12144
ested	-12145
▁carb	-12146
▁ALWAYS	-12147
fting	-12148
formation	-12149
▁Friends	-12150
▁weave	-12151
▁presenting	-12152
dr	-12153
▁slave	-12154
▁remotely	-12155
▁mesmer	-12156
Having	-12157
▁scientist	-12158
otta	-12159
▁PLAY	-12160
▁les	-12161
▁hardest	-12162
puter	-12163
▁Health	-12164
▁strengths	-12165
▁ACT	-12166
▁Alaska	-12167
▁Front	-12168
hamed	-12169
▁Russia	-12170
▁beam	-12171
▁restaurants	-12172
▁Prom	-12173
▁safer	-12174
▁destruction	-12175
▁Wife	-12176
▁cruise	-12177
▁Collins	-12178
uart	-12179
▁Jews	-12180
▁backdrop	-12181
▁PLEASE	-12182
▁opportunities	-12183
▁listens	-12184
hall	-12185
▁trays	-12186
▁50'	-12187
▁burns	-12188
▁unpleasant	-12189
▁styling	-12190
▁possess	-12191
DVD	-12192
▁turt	-12193
▁torture	-12194
agle	-12195
▁HO	-12196
IRE	-12197
▁trainer	-12198
▁Pacific	-12199
redictable	-12200
ieval	-12201
▁glowing	-12202
▁heading	-12203
▁offensive	-12204
▁testim	-12205
▁multiplayer	-12206
▁Arch	-12207
▁sympathetic	-12208
tra	-12209
▁climb	-12210
etta	-12211
▁Boo	-12212
two	-12213
iblings	-12214
ongevity	-12215
▁thrillers	-12216
▁burnt	-12217
▁Town	-12218
▁Bless	-12219
▁achieved	-12220
▁Raz	-12221
▁olive	-12222
▁bras	-12223
▁ly	-12224
otica	-12225
▁Norton	-12226
▁Conf	-12227
▁Enough	-12228
▁argue	-12229
▁scheme	-12230
▁desperately	-12231
▁der	-12232
▁granted	-12233
▁drawers	-12234
▁gradually	-12235
▁dy	-12236
prised	-12237
▁viewers	-12238
▁Corn	-12239
antern	-12240
▁ski	-12241
CK	-12242
▁snugg	-12243
TR	-12244
rip	-12245
▁angels	-12246
athon	-12247
▁Keurig	-12248
▁Left	-12249
▁solidly	-12250
fare	-12251
▁bay	-12252
▁Fle	-12253
▁rented	-12254
mn	-12255
▁citizens	-12256
▁processes	-12257
itudes	-12258
▁Larry	-12259
claim	-12260
▁priceless	-12261
▁affects	-12262
▁WAR	-12263
▁Cooper	-12264
▁wha	-12265
▁Cow	-12266
product	-12267
▁Lego	-12268
ints	-12269
▁hesitation	-12270
▁Original	-12271
▁Hamilton	-12272
▁cubes	-12273
.4.	-12274
kill	-12275
master	-12276
▁Native	-12277
abe	-12278
▁95	-12279
▁Sym	-12280
▁PE	-12281
▁General	-12282
▁breathtaking	-12283
▁flipping	-12284
bat	-12285
Have	-12286
▁Diana	-12287
▁Regardless	-12288
▁entering	-12289
level	-12290
▁floating	-12291
▁recommends	-12292
▁peak	-12293
accept	-12294
▁Party	-12295
▁almond	-12296
▁Seller	-12297
▁grinding	-12298
▁Won	-12299
▁explored	-12300
▁solos	-12301
▁enchan	-12302
▁Beware	-12303
▁(6	-12304
▁rooting	-12305
▁laces	-12306
▁Kings	-12307
utive	-12308
▁1980	-12309
▁excer	-12310
oodle	-12311
▁exhib	-12312
▁weld	-12313
pen	-12314
▁paintings	-12315
attered	-12316
▁pushes	-12317
▁reject	-12318
▁leap	-12319
▁Crow	-12320
▁Austen	-12321
ieving	-12322
ainted	-12323
▁Eddie	-12324
cest	-12325
▁theatre	-12326
▁cliffhanger	-12327
▁icon	-12328
▁Kell	-12329
agues	-12330
▁Meg	-12331
▁patches	-12332
▁Andre	-12333
▁Gift	-12334
▁Monday	-12335
▁chord	-12336
-)	-12337
▁rates	-12338
▁sneakers	-12339
odge	-12340
▁satisfactory	-12341
▁improvements	-12342
▁portrays	-12343
45	-12344
▁controllers	-12345
▁flavored	-12346
▁Stay	-12347
▁Matthew	-12348
▁SUPER	-12349
▁tags	-12350
Keep	-12351
▁compre	-12352
▁Sen	-12353
▁Expl	-12354
itis	-12355
▁SEE	-12356
▁interference	-12357
▁slap	-12358
▁Travel	-12359
bus	-12360
hin	-12361
▁Liz	-12362
FORE	-12363
▁soil	-12364
▁electricity	-12365
▁stretches	-12366
▁Liked	-12367
eman	-12368
▁territ	-12369
▁reel	-12370
▁Barry	-12371
arring	-12372
▁Honda	-12373
rels	-12374
owed	-12375
▁browser	-12376
▁races	-12377
▁redemption	-12378
▁wrists	-12379
heim	-12380
▁distingu	-12381
▁Cob	-12382
grade	-12383
5.00	-12384
normal	-12385
▁scream	-12386
▁Gib	-12387
▁opted	-12388
▁arrangement	-12389
idad	-12390
▁exotic	-12391
▁sparkle	-12392
▁Normally	-12393
BL	-12394
▁signed	-12395
▁genuinely	-12396
▁fifty	-12397
▁stretchy	-12398
▁WORKS	-12399
▁belts	-12400
MP	-12401
▁calculator	-12402
▁invis	-12403
▁goof	-12404
▁hardship	-12405
▁Disappointed	-12406
appoint	-12407
ruption	-12408
▁collected	-12409
▁Murd	-12410
▁discussing	-12411
▁Devil	-12412
▁Grisham	-12413
▁Gosp	-12414
▁cabinets	-12415
▁Wanted	-12416
ottle	-12417
▁crimes	-12418
oric	-12419
▁beg	-12420
▁sloppy	-12421
▁Glass	-12422
▁Machine	-12423
▁Kong	-12424
▁clunky	-12425
▁Sent	-12426
▁pumps	-12427
brid	-12428
▁Nut	-12429
▁Leather	-12430
▁pouring	-12431
▁mythology	-12432
▁Compared	-12433
wide	-12434
▁Bed	-12435
▁Doc	-12436
▁forgive	-12437
stars	-12438
▁pathetic	-12439
rous	-12440
pieces	-12441
▁climbing	-12442
▁Orleans	-12443
▁stripped	-12444
▁brewing	-12445
▁processing	-12446
▁Nazi	-12447
brand	-12448
ami	-12449
▁therapist	-12450
burg	-12451
▁siblings	-12452
▁consists	-12453
▁yell	-12454
▁selfish	-12455
Nice	-12456
▁knit	-12457
▁vibe	-12458
▁themed	-12459
acion	-12460
ggings	-12461
▁liners	-12462
ala	-12463
amous	-12464
▁stubborn	-12465
human	-12466
▁tattoo	-12467
▁Nob	-12468
▁Storm	-12469
▁DOWN	-12470
▁gender	-12471
▁rapidly	-12472
▁Believe	-12473
▁runner	-12474
▁Macbook	-12475
harm	-12476
cases	-12477
▁Pay	-12478
▁songwriting	-12479
▁entries	-12480
VC	-12481
▁alternatives	-12482
ldom	-12483
▁pointing	-12484
▁ticket	-12485
▁Brazil	-12486
sen	-12487
▁Clar	-12488
ridge	-12489
▁paste	-12490
▁ministry	-12491
▁tangled	-12492
veloped	-12493
▁7,	-12494
▁Planet	-12495
▁freezes	-12496
▁keen	-12497
▁thier	-12498
▁Cou	-12499
▁discou	-12500
▁Mouse	-12501
▁enhanced	-12502
black	-12503
▁Beth	-12504
hum	-12505
▁cryst	-12506
▁soulful	-12507
▁visits	-12508
▁McK	-12509
▁bio	-12510
▁mechanics	-12511
▁2005	-12512
▁Shadow	-12513
▁triple	-12514
▁albeit	-12515
iance	-12516
innamon	-12517
▁lamps	-12518
▁retro	-12519
▁assistance	-12520
▁bills	-12521
-30	-12522
▁overt	-12523
Where	-12524
▁Center	-12525
▁condens	-12526
gon	-12527
▁sleeps	-12528
▁camper	-12529
▁tearing	-12530
▁compression	-12531
filled	-12532
▁crown	-12533
adian	-12534
▁maintaining	-12535
▁GOD	-12536
▁cad	-12537
without	-12538
Dr	-12539
▁capsules	-12540
ste	-12541
▁clicking	-12542
▁Connect	-12543
▁epil	-12544
▁canon	-12545
▁legacy	-12546
▁wing	-12547
hill	-12548
▁employees	-12549
▁este	-12550
▁menus	-12551
Add	-12552
▁excerpt	-12553
▁Lily	-12554
▁brackets	-12555
▁aggressive	-12556
gate	-12557
▁encouragement	-12558
▁horn	-12559
▁apolog	-12560
▁contrived	-12561
▁aimed	-12562
▁resort	-12563
▁measures	-12564
▁economical	-12565
▁endure	-12566
still	-12567
umsy	-12568
▁Psy	-12569
▁documented	-12570
▁Forget	-12571
▁tar	-12572
▁float	-12573
▁Annie	-12574
▁vital	-12575
▁inputs	-12576
▁digging	-12577
▁camcorder	-12578
Car	-12579
▁Fantasy	-12580
bruary	-12581
▁Clint	-12582
▁loan	-12583
▁translated	-12584
▁strikes	-12585
again	-12586
▁ergon	-12587
▁swap	-12588
▁ribbon	-12589
ely	-12590
▁crafts	-12591
Somet	-12592
▁absorbed	-12593
▁coinc	-12594
▁fir	-12595
▁5/5	-12596
brew	-12597
prene	-12598
▁cube	-12599
▁hyper	-12600
▁copper	-12601
▁bears	-12602
▁jog	-12603
▁Speed	-12604
▁alle	-12605
▁solely	-12606
ugar	-12607
▁Mit	-12608
▁organizer	-12609
▁idi	-12610
▁buddy	-12611
▁Roger	-12612
▁ranks	-12613
▁collectors	-12614
▁Fat	-12615
▁withstand	-12616
▁conflicts	-12617
▁allergic	-12618
▁Goes	-12619
▁potentially	-12620
▁ENJOY	-12621
▁treas	-12622
▁disapointed	-12623
maker	-12624
lit	-12625
▁GL	-12626
▁technically	-12627
▁Ref	-12628
▁overpowering	-12629
ounced	-12630
▁sustain	-12631
▁Neither	-12632
▁muse	-12633
▁poses	-12634
▁peoples	-12635
▁longevity	-12636
▁amongst	-12637
▁plausible	-12638
▁Graph	-12639
▁Nintendo	-12640
▁centuries	-12641
▁preach	-12642
Or	-12643
▁tempted	-12644
▁APP	-12645
▁Insp	-12646
Out	-12647
▁moms	-12648
▁arranged	-12649
▁increasing	-12650
▁Fans	-12651
▁simultaneously	-12652
▁craftsm	-12653
▁Ni	-12654
▁refunded	-12655
ects	-12656
▁Empire	-12657
ettes	-12658
▁nom	-12659
▁deterg	-12660
▁abund	-12661
Never	-12662
▁statements	-12663
pot	-12664
''	-12665
▁wolf	-12666
▁chewing	-12667
▁transparent	-12668
▁Danny	-12669
bey	-12670
chair	-12671
▁idiot	-12672
▁traps	-12673
▁canister	-12674
FT	-12675
▁carafe	-12676
▁33	-12677
▁hardcover	-12678
urous	-12679
://	-12680
▁roads	-12681
▁beside	-12682
▁Wy	-12683
▁cheer	-12684
first	-12685
▁Due	-12686
▁Hur	-12687
▁garlic	-12688
▁dye	-12689
handed	-12690
▁7.5	-12691
▁fare	-12692
▁herbs	-12693
▁fulfill	-12694
▁downfall	-12695
▁sour	-12696
▁downright	-12697
▁headsets	-12698
orical	-12699
▁spectrum	-12700
▁poop	-12701
immer	-12702
▁baked	-12703
since	-12704
▁Honey	-12705
▁anxiously	-12706
once	-12707
eks	-12708
BUT	-12709
Enjoy	-12710
▁exclusively	-12711
▁fry	-12712
early	-12713
▁clay	-12714
▁distant	-12715
▁Belkin	-12716
▁rival	-12717
▁silk	-12718
▁spouse	-12719
ributes	-12720
▁remotes	-12721
▁intake	-12722
uin	-12723
▁sarc	-12724
▁Hello	-12725
▁flame	-12726
▁Fro	-12727
▁horizontal	-12728
▁Obama	-12729
▁Melissa	-12730
ounded	-12731
▁china	-12732
duced	-12733
▁underwear	-12734
▁lifes	-12735
ttp	-12736
▁Stre	-12737
pol	-12738
▁DEF	-12739
ACE	-12740
▁Bi	-12741
ockey	-12742
▁rocking	-12743
▁illeg	-12744
▁debate	-12745
▁Collection	-12746
▁interactive	-12747
pat	-12748
▁deod	-12749
ungle	-12750
▁dang	-12751
▁prol	-12752
ophile	-12753
vably	-12754
rowing	-12755
amel	-12756
▁worrying	-12757
▁MADE	-12758
▁snag	-12759
ho	-12760
▁tactics	-12761
alo	-12762
▁professionally	-12763
▁waking	-12764
▁tro	-12765
uer	-12766
Ah	-12767
▁joined	-12768
▁reflective	-12769
▁CPU	-12770
▁Lucas	-12771
▁Virginia	-12772
▁requiring	-12773
▁sail	-12774
acts	-12775
fish	-12776
▁pitcher	-12777
thought	-12778
▁mund	-12779
▁Jamie	-12780
▁templ	-12781
▁veteran	-12782
▁quieter	-12783
▁shakes	-12784
▁briefly	-12785
▁reform	-12786
▁Listen	-12787
▁signals	-12788
▁troubled	-12789
sembly	-12790
▁Sara	-12791
▁secured	-12792
▁nit	-12793
▁traditions	-12794
▁coated	-12795
▁composition	-12796
cat	-12797
sa	-12798
Last	-12799
▁Lead	-12800
quel	-12801
forcement	-12802
TO	-12803
eltic	-12804
▁Natural	-12805
seat	-12806
▁ratio	-12807
▁MAC	-12808
matic	-12809
ieves	-12810
▁unforget	-12811
▁whis	-12812
▁DSLR	-12813
cker	-12814
▁mig	-12815
▁prayers	-12816
▁sucker	-12817
▁devotion	-12818
Tom	-12819
▁relates	-12820
▁ounce	-12821
▁Evan	-12822
▁villains	-12823
▁THING	-12824
station	-12825
▁refills	-12826
▁Tell	-12827
▁winds	-12828
earch	-12829
▁reinfor	-12830
lette	-12831
▁BEFORE	-12832
▁rewarding	-12833
▁curtains	-12834
gher	-12835
asma	-12836
▁mentally	-12837
Pl	-12838
▁Nav	-12839
▁ample	-12840
-19	-12841
▁assured	-12842
▁Bass	-12843
▁admitted	-12844
▁Main	-12845
alone	-12846
▁Track	-12847
▁EL	-12848
▁IMO	-12849
▁Gord	-12850
▁beard	-12851
ANG	-12852
gear	-12853
▁lightning	-12854
▁folder	-12855
much	-12856
▁Muslim	-12857
hend	-12858
▁Whatever	-12859
▁workers	-12860
dim	-12861
▁indicates	-12862
▁backgrounds	-12863
▁alphabet	-12864
MC	-12865
▁striking	-12866
yson	-12867
allic	-12868
▁Asus	-12869
▁bron	-12870
comes	-12871
UTE	-12872
▁mascara	-12873
related	-12874
eno	-12875
adays	-12876
Definitely	-12877
rison	-12878
▁deploy	-12879
▁introducing	-12880
▁Kin	-12881
▁yards	-12882
▁sme	-12883
▁remastered	-12884
▁Store	-12885
▁SONG	-12886
▁spins	-12887
▁devotional	-12888
▁revelation	-12889
kers	-12890
ookie	-12891
nell	-12892
▁peaceful	-12893
▁Prem	-12894
istle	-12895
▁parad	-12896
▁treatments	-12897
▁banana	-12898
▁insult	-12899
pher	-12900
▁cardio	-12901
▁negatives	-12902
▁bik	-12903
ipper	-12904
▁COMP	-12905
▁scoot	-12906
iva	-12907
▁Between	-12908
▁corrected	-12909
▁diagnosed	-12910
▁funk	-12911
▁exagger	-12912
otch	-12913
▁franch	-12914
tem	-12915
avender	-12916
ocaust	-12917
▁POV	-12918
▁2006	-12919
▁iTunes	-12920
▁bloody	-12921
▁clumsy	-12922
mony	-12923
▁glitches	-12924
▁Anything	-12925
meal	-12926
▁counts	-12927
▁limitations	-12928
▁tiles	-12929
uinn	-12930
▁theology	-12931
▁gladly	-12932
▁thankfully	-12933
▁establish	-12934
▁BECAUSE	-12935
▁ashamed	-12936
▁eaten	-12937
▁releasing	-12938
ocus	-12939
arium	-12940
▁awake	-12941
▁Kiss	-12942
▁Away	-12943
▁Form	-12944
uclear	-12945
▁sided	-12946
▁Tommy	-12947
uity	-12948
ummies	-12949
▁modest	-12950
▁Gone	-12951
plex	-12952
oshop	-12953
mented	-12954
▁loyalty	-12955
▁parenting	-12956
▁THEN	-12957
▁buildings	-12958
▁lather	-12959
▁dat	-12960
opsis	-12961
ulpt	-12962
▁lonely	-12963
Over	-12964
▁knitting	-12965
owered	-12966
▁Hitler	-12967
ographies	-12968
getic	-12969
▁fer	-12970
▁Garden	-12971
inity	-12972
▁bore	-12973
▁enthusiast	-12974
IO	-12975
▁occurs	-12976
ousy	-12977
loaded	-12978
▁potatoes	-12979
ouses	-12980
▁east	-12981
amazon	-12982
▁lashes	-12983
▁partners	-12984
▁lub	-12985
▁ALSO	-12986
▁Walker	-12987
▁shuts	-12988
▁bene	-12989
▁privile	-12990
ortment	-12991
▁Gene	-12992
▁Eye	-12993
▁Business	-12994
▁bias	-12995
ission	-12996
▁SHOULD	-12997
▁exquisite	-12998
▁Were	-12999
placed	-13000
functional	-13001
▁Cel	-13002
▁sed	-13003
ISS	-13004
▁Sophie	-13005
▁Ast	-13006
ocket	-13007
hoot	-13008
rus	-13009
▁EVERYTHING	-13010
▁crossed	-13011
▁storyteller	-13012
▁nozzle	-13013
ulator	-13014
▁confess	-13015
▁whoever	-13016
▁Joan	-13017
,'	-13018
strong	-13019
▁continuously	-13020
▁cakes	-13021
ICT	-13022
▁Gre	-13023
▁longest	-13024
▁como	-13025
uming	-13026
rating	-13027
itage	-13028
17	-13029
andal	-13030
▁enthralled	-13031
tan	-13032
▁compares	-13033
▁ener	-13034
▁Bag	-13035
▁crate	-13036
▁capturing	-13037
▁inevitable	-13038
▁anniversary	-13039
angel	-13040
▁spices	-13041
nice	-13042
elines	-13043
EAS	-13044
oto	-13045
▁apt	-13046
▁WERE	-13047
▁Gabriel	-13048
▁Islam	-13049
.3	-13050
ae	-13051
▁sax	-13052
▁seamlessly	-13053
rame	-13054
▁widely	-13055
▁soy	-13056
▁tanks	-13057
▁grandparents	-13058
More	-13059
▁hike	-13060
▁tense	-13061
fight	-13062
▁gogg	-13063
aneous	-13064
▁lengths	-13065
▁pliers	-13066
▁conjunction	-13067
▁naive	-13068
▁entr	-13069
▁north	-13070
▁1960	-13071
Many	-13072
▁outrageous	-13073
ographic	-13074
term	-13075
▁entered	-13076
▁Shame	-13077
▁leggings	-13078
▁clubs	-13079
▁Lion	-13080
▁Legend	-13081
turner	-13082
▁pumping	-13083
▁Phillips	-13084
▁Entertain	-13085
▁Cuisinart	-13086
▁buried	-13087
▁array	-13088
▁needles	-13089
ITTLE	-13090
ailed	-13091
▁Py	-13092
prisingly	-13093
▁phase	-13094
▁sprayed	-13095
could	-13096
mal	-13097
▁chess	-13098
icable	-13099
▁contrad	-13100
▁factors	-13101
▁authority	-13102
▁ounces	-13103
▁Ban	-13104
▁Marie	-13105
▁29	-13106
▁loosely	-13107
▁Fu	-13108
▁Turns	-13109
▁2"	-13110
▁drown	-13111
anny	-13112
igma	-13113
▁180	-13114
▁whats	-13115
▁netbook	-13116
▁gardening	-13117
▁MUS	-13118
▁yogurt	-13119
▁Linux	-13120
▁ripping	-13121
▁Eventually	-13122
▁creamy	-13123
▁senses	-13124
disc	-13125
▁Las	-13126
▁Easily	-13127
▁Bee	-13128
▁Cind	-13129
▁ghosts	-13130
▁cinematography	-13131
grass	-13132
▁knobs	-13133
▁damaging	-13134
ENS	-13135
▁stranger	-13136
itives	-13137
pert	-13138
▁Hum	-13139
▁irritated	-13140
▁Hoover	-13141
▁revers	-13142
▁flesh	-13143
itual	-13144
ege	-13145
▁repaired	-13146
▁Readers	-13147
▁fired	-13148
ishment	-13149
▁binder	-13150
▁shaking	-13151
▁boxed	-13152
nett	-13153
▁flops	-13154
however	-13155
▁craftsmanship	-13156
▁Opt	-13157
▁beneficial	-13158
asingly	-13159
▁cleared	-13160
pin	-13161
ursery	-13162
▁intimid	-13163
▁Royal	-13164
▁orphan	-13165
▁abandoned	-13166
▁transformation	-13167
▁Olivia	-13168
www	-13169
▁Reacher	-13170
becca	-13171
▁duplic	-13172
osc	-13173
▁UV	-13174
▁sla	-13175
▁Dol	-13176
▁contribution	-13177
▁Say	-13178
▁university	-13179
▁purely	-13180
▁dressing	-13181
▁Wouldn	-13182
▁visuals	-13183
rilliant	-13184
answ	-13185
paper	-13186
eron	-13187
▁samsung	-13188
▁tonight	-13189
ondition	-13190
▁Novel	-13191
nut	-13192
▁FIT	-13193
▁aloud	-13194
▁ambient	-13195
▁JO	-13196
ombie	-13197
▁trains	-13198
Bec	-13199
▁bc	-13200
GS	-13201
▁sequels	-13202
▁openings	-13203
▁beneath	-13204
itamin	-13205
dry	-13206
stock	-13207
24	-13208
▁Reason	-13209
▁invisible	-13210
▁tote	-13211
Does	-13212
▁territory	-13213
▁$2.	-13214
▁profit	-13215
▁Sir	-13216
▁duck	-13217
▁strictly	-13218
▁stabil	-13219
▁precisely	-13220
▁excelent	-13221
▁Later	-13222
connect	-13223
grad	-13224
▁SF	-13225
▁ramp	-13226
▁royal	-13227
▁decorative	-13228
orig	-13229
▁costly	-13230
▁oriented	-13231
▁Player	-13232
▁buys	-13233
▁Initially	-13234
▁integrated	-13235
▁apocaly	-13236
bury	-13237
▁crushed	-13238
▁castle	-13239
▁Keith	-13240
-$	-13241
umer	-13242
▁Photoshop	-13243
▁strongest	-13244
▁ES	-13245
▁pine	-13246
▁fifteen	-13247
▁powd	-13248
▁Rice	-13249
▁progresses	-13250
▁wicked	-13251
▁whistles	-13252
▁February	-13253
▁Hannah	-13254
▁insec	-13255
▁drummer	-13256
▁accompanying	-13257
lings	-13258
▁Nature	-13259
USB	-13260
▁masters	-13261
▁assortment	-13262
▁Evil	-13263
Each	-13264
▁complements	-13265
ths	-13266
notes	-13267
▁unscrew	-13268
riet	-13269
berries	-13270
▁Mexican	-13271
▁abusive	-13272
▁tuning	-13273
▁Dawn	-13274
▁dragons	-13275
CL	-13276
▁rank	-13277
finished	-13278
▁deadly	-13279
▁suspend	-13280
▁5.1	-13281
▁attaching	-13282
▁WHY	-13283
▁seldom	-13284
▁triangle	-13285
▁specially	-13286
▁itchy	-13287
▁bottoms	-13288
▁shoots	-13289
▁Page	-13290
▁finale	-13291
▁reha	-13292
▁ought	-13293
▁marker	-13294
▁cradle	-13295
aco	-13296
▁Duke	-13297
▁rotation	-13298
along	-13299
▁Jesse	-13300
enix	-13301
▁naked	-13302
ilst	-13303
▁centers	-13304
▁robot	-13305
▁temperatures	-13306
cups	-13307
▁lake	-13308
aws	-13309
▁virus	-13310
▁CHAR	-13311
▁pays	-13312
▁depiction	-13313
iency	-13314
▁Jonathan	-13315
fiber	-13316
▁Cream	-13317
▁Colorado	-13318
▁Mystery	-13319
▁poison	-13320
▁THANK	-13321
▁illum	-13322
▁Dougl	-13323
▁confirmed	-13324
▁dots	-13325
▁irritation	-13326
Per	-13327
▁spirituality	-13328
quin	-13329
▁Stick	-13330
green	-13331
▁anthology	-13332
▁Program	-13333
▁Thor	-13334
▁experts	-13335
▁steering	-13336
▁Hands	-13337
▁pell	-13338
▁brow	-13339
▁american	-13340
▁sharpener	-13341
Sc	-13342
▁boiling	-13343
Excellent	-13344
unte	-13345
▁Gray	-13346
▁stepped	-13347
▁gimm	-13348
▁Open	-13349
▁Bobby	-13350
▁Marg	-13351
▁tee	-13352
▁postage	-13353
▁6-	-13354
enter	-13355
▁questionable	-13356
▁fleece	-13357
▁Eastern	-13358
gles	-13359
▁betrayal	-13360
▁WOND	-13361
▁incomplete	-13362
lands	-13363
▁2004	-13364
▁dissapoint	-13365
Fl	-13366
▁chalk	-13367
bucks	-13368
▁aroma	-13369
laim	-13370
▁intr	-13371
▁pity	-13372
mental	-13373
▁definetly	-13374
▁rubberized	-13375
▁recount	-13376
ractor	-13377
▁scholarly	-13378
▁Weber	-13379
ikes	-13380
▁guaranteed	-13381
▁demands	-13382
zers	-13383
liness	-13384
▁agenda	-13385
apes	-13386
▁manga	-13387
▁temporary	-13388
▁RIGHT	-13389
▁ramb	-13390
▁scuff	-13391
probably	-13392
▁Smell	-13393
▁spiral	-13394
▁passage	-13395
▁washable	-13396
usable	-13397
▁energetic	-13398
):	-13399
▁Cart	-13400
▁permanently	-13401
▁ancest	-13402
Ste	-13403
▁110	-13404
▁toxic	-13405
▁transf	-13406
▁tempo	-13407
▁fixture	-13408
▁Eyes	-13409
▁sang	-13410
▁acceptance	-13411
▁environmental	-13412
▁reb	-13413
▁Wasn	-13414
▁According	-13415
▁Project	-13416
▁noticeably	-13417
olin	-13418
▁Ward	-13419
▁woke	-13420
▁Afghanistan	-13421
▁resulted	-13422
▁Butter	-13423
▁LITTLE	-13424
▁mirrors	-13425
▁booster	-13426
coal	-13427
▁utens	-13428
▁Support	-13429
ennis	-13430
▁taped	-13431
viet	-13432
affeine	-13433
▁underground	-13434
▁illustrate	-13435
▁clamps	-13436
▁decoration	-13437
opath	-13438
▁overwhelmed	-13439
rection	-13440
▁wides	-13441
olved	-13442
▁Human	-13443
▁Miles	-13444
▁.....	-13445
robe	-13446
ASTIC	-13447
▁spa	-13448
▁ranging	-13449
▁ingen	-13450
ulu	-13451
▁Professor	-13452
▁prejud	-13453
▁necessity	-13454
▁adaptor	-13455
/11	-13456
▁Mason	-13457
▁digit	-13458
▁Britain	-13459
bris	-13460
Mic	-13461
ibble	-13462
▁Kent	-13463
▁decl	-13464
▁Charlotte	-13465
▁Austin	-13466
App	-13467
▁spicy	-13468
VIEW	-13469
Because	-13470
UALITY	-13471
▁virtual	-13472
▁Break	-13473
airy	-13474
▁tissue	-13475
▁scientists	-13476
▁transcend	-13477
note	-13478
▁Slim	-13479
▁Fine	-13480
▁advoc	-13481
acceptable	-13482
▁Words	-13483
▁Dest	-13484
▁prescription	-13485
▁brushing	-13486
▁slavery	-13487
▁Kle	-13488
▁depressed	-13489
▁elabor	-13490
ication	-13491
▁promote	-13492
▁midst	-13493
▁PUT	-13494
Though	-13495
▁gadgets	-13496
▁Chronic	-13497
▁nin	-13498
▁Thompson	-13499
▁DVR	-13500
▁Angels	-13501
▁warrior	-13502
rene	-13503
▁piv	-13504
▁truely	-13505
▁smiling	-13506
▁Bor	-13507
▁signature	-13508
▁Wol	-13509
▁bicycle	-13510
▁hopeless	-13511
▁ankles	-13512
▁pedals	-13513
TB	-13514
▁Brooks	-13515
▁glitch	-13516
zo	-13517
▁navigation	-13518
▁Stanley	-13519
▁persu	-13520
▁prede	-13521
▁YES	-13522
▁duo	-13523
▁OLD	-13524
reader	-13525
chable	-13526
▁Liter	-13527
▁SS	-13528
▁Fight	-13529
istically	-13530
▁Fisher	-13531
▁BOUGHT	-13532
▁cosmet	-13533
▁manif	-13534
▁impe	-13535
▁Catherine	-13536
▁Build	-13537
▁Titan	-13538
dro	-13539
50.	-13540
pless	-13541
▁Except	-13542
▁draft	-13543
▁reorder	-13544
▁THINK	-13545
▁harmony	-13546
▁mildly	-13547
▁creature	-13548
tical	-13549
▁Begin	-13550
▁Walter	-13551
▁FIN	-13552
▁Pete	-13553
cled	-13554
▁consciousness	-13555
▁Cars	-13556
▁toothpaste	-13557
▁origins	-13558
ending	-13559
▁Plant	-13560
▁Hat	-13561
▁HARD	-13562
▁Sonic	-13563
▁scanning	-13564
▁pier	-13565
▁increasingly	-13566
dig	-13567
▁rubbed	-13568
cell	-13569
inda	-13570
▁LEA	-13571
▁thermost	-13572
▁fixing	-13573
▁avoided	-13574
▁Leonard	-13575
▁adoles	-13576
▁cherry	-13577
hr	-13578
▁NICE	-13579
▁refers	-13580
ailable	-13581
▁Crystal	-13582
Hope	-13583
▁!!!!	-13584
▁deer	-13585
▁Lau	-13586
PC	-13587
▁engrossed	-13588
▁chipped	-13589
▁crystals	-13590
▁sling	-13591
▁30-	-13592
▁Doll	-13593
▁Field	-13594
▁exped	-13595
ori	-13596
▁Ruth	-13597
▁dar	-13598
▁appe	-13599
▁Ultimate	-13600
▁teas	-13601
▁waves	-13602
▁answering	-13603
▁unforgettable	-13604
▁ongoing	-13605
▁outlook	-13606
sk	-13607
▁harmonies	-13608
▁rape	-13609
▁lovable	-13610
▁SIM	-13611
▁treadmill	-13612
arrow	-13613
▁puff	-13614
▁flowed	-13615
chain	-13616
EEP	-13617
▁obnox	-13618
▁$300	-13619
▁FAR	-13620
▁macbook	-13621
▁fingerprints	-13622
▁Java	-13623
▁Todd	-13624
.5.	-13625
▁expose	-13626
▁conspiracy	-13627
rama	-13628
▁enclosure	-13629
▁cudd	-13630
▁Valley	-13631
▁controlling	-13632
▁2003	-13633
▁(2)	-13634
▁DL	-13635
▁commercials	-13636
▁Beauty	-13637
▁Direct	-13638
▁suitcase	-13639
Our	-13640
hips	-13641
▁Lovely	-13642
Big	-13643
feel	-13644
▁echo	-13645
unless	-13646
▁dud	-13647
Fe	-13648
▁scales	-13649
▁sharpen	-13650
▁Records	-13651
▁navy	-13652
LF	-13653
▁introductory	-13654
▁mugs	-13655
▁differ	-13656
▁dile	-13657
▁sampl	-13658
apy	-13659
▁medication	-13660
▁DAY	-13661
▁otterbox	-13662
▁repeating	-13663
AA	-13664
neys	-13665
▁Nathan	-13666
▁appoint	-13667
oning	-13668
▁calf	-13669
▁Bach	-13670
32	-13671
▁statistics	-13672
▁blankets	-13673
▁password	-13674
▁indication	-13675
fo	-13676
▁inher	-13677
gets	-13678
▁minded	-13679
▁Ho	-13680
▁Prov	-13681
▁pulp	-13682
▁travelling	-13683
issues	-13684
▁MUSIC	-13685
▁HT	-13686
▁Hend	-13687
▁spills	-13688
▁ric	-13689
▁restore	-13690
▁Medium	-13691
ela	-13692
▁fathers	-13693
▁Beautifully	-13694
▁grooves	-13695
ani	-13696
▁erotica	-13697
iro	-13698
ulture	-13699
▁Decent	-13700
ello	-13701
▁Jere	-13702
▁petite	-13703
▁murderer	-13704
▁RPG	-13705
▁hunter	-13706
▁assigned	-13707
▁retailer	-13708
Gl	-13709
▁cran	-13710
▁grandma	-13711
▁starring	-13712
▁evo	-13713
kyo	-13714
▁enthusiasm	-13715
▁performer	-13716
▁Room	-13717
▁investigate	-13718
▁pose	-13719
▁deri	-13720
▁evolved	-13721
▁freaking	-13722
▁synopsis	-13723
▁reduction	-13724
▁musically	-13725
▁$$$	-13726
▁Nap	-13727
▁Graham	-13728
▁Chuck	-13729
arded	-13730
ML	-13731
▁regist	-13732
▁developer	-13733
▁reliability	-13734
▁NAS	-13735
▁protagonists	-13736
▁characteristics	-13737
▁hinges	-13738
▁knowledgeable	-13739
▁Lad	-13740
▁crucial	-13741
▁chilling	-13742
▁myths	-13743
▁Looked	-13744
▁Material	-13745
▁franchise	-13746
▁listeners	-13747
itative	-13748
▁hunger	-13749
iti	-13750
▁shops	-13751
▁studs	-13752
▁Gro	-13753
▁crashed	-13754
▁Ide	-13755
passed	-13756
▁Final	-13757
▁occupied	-13758
▁Bun	-13759
▁Sum	-13760
itly	-13761
▁Happ	-13762
▁Coast	-13763
▁Hon	-13764
▁ALB	-13765
▁surfing	-13766
▁rul	-13767
▁pear	-13768
▁greatness	-13769
.1.	-13770
▁entreprene	-13771
▁jet	-13772
erto	-13773
▁Gospel	-13774
▁temps	-13775
▁nursery	-13776
▁Eff	-13777
▁Returned	-13778
▁Find	-13779
FUL	-13780
▁whit	-13781
▁duct	-13782
▁Trilogy	-13783
▁ratt	-13784
▁embrace	-13785
▁Alpha	-13786
Ab	-13787
▁Doug	-13788
▁orient	-13789
▁segment	-13790
Did	-13791
▁processed	-13792
▁blurry	-13793
▁greed	-13794
ibles	-13795
oline	-13796
▁league	-13797
▁enclosed	-13798
enth	-13799
irect	-13800
▁dvds	-13801
▁entitled	-13802
▁misses	-13803
nor	-13804
▁bead	-13805
▁kicked	-13806
WN	-13807
▁Diet	-13808
words	-13809
▁Superman	-13810
6"	-13811
▁flashes	-13812
▁enthusiastic	-13813
vals	-13814
▁steamer	-13815
developed	-13816
▁Chocolate	-13817
▁chaos	-13818
aints	-13819
▁kicking	-13820
▁composed	-13821
▁LEDs	-13822
oodles	-13823
▁turkey	-13824
oven	-13825
▁fleshed	-13826
▁vulnerable	-13827
▁stal	-13828
▁remarkably	-13829
▁categories	-13830
▁eloqu	-13831
▁Seattle	-13832
▁absorbing	-13833
▁LIFE	-13834
▁oppon	-13835
overs	-13836
▁subwoofer	-13837
▁Academ	-13838
▁chewed	-13839
▁boil	-13840
ortal	-13841
▁Court	-13842
▁bind	-13843
▁bracelets	-13844
▁expired	-13845
▁cyn	-13846
▁sunscreen	-13847
▁exercising	-13848
▁Feel	-13849
ao	-13850
▁STR	-13851
▁3)	-13852
▁undert	-13853
shine	-13854
▁8,	-13855
▁Rest	-13856
URN	-13857
▁MAKE	-13858
▁trucks	-13859
▁freely	-13860
▁commend	-13861
Ok	-13862
hz	-13863
▁Suz	-13864
▁Edge	-13865
▁pastor	-13866
▁appropri	-13867
▁detailing	-13868
wal	-13869
▁detergent	-13870
iano	-13871
▁Own	-13872
▁Adult	-13873
▁85	-13874
▁Spider	-13875
▁Stop	-13876
▁smud	-13877
▁adaptation	-13878
▁alongside	-13879
▁rocker	-13880
mega	-13881
▁Started	-13882
tail	-13883
▁drunk	-13884
▁publish	-13885
Otherwise	-13886
▁cookware	-13887
▁trio	-13888
nex	-13889
▁YEARS	-13890
▁outline	-13891
Too	-13892
▁applicable	-13893
game	-13894
▁CAR	-13895
enes	-13896
▁synthetic	-13897
emed	-13898
Hz	-13899
jointed	-13900
worthy	-13901
Really	-13902
▁blower	-13903
▁pains	-13904
▁prett	-13905
▁Hear	-13906
▁rendering	-13907
NY	-13908
▁diamonds	-13909
▁progression	-13910
▁Warren	-13911
bean	-13912
▁nud	-13913
▁frost	-13914
workers	-13915
▁Marvel	-13916
▁upgrading	-13917
▁fres	-13918
▁remed	-13919
▁storylines	-13920
sn	-13921
▁predecess	-13922
ippy	-13923
ERFUL	-13924
▁Michelle	-13925
▁brilliance	-13926
prot	-13927
▁incorporate	-13928
▁chin	-13929
Recommended	-13930
izers	-13931
nothing	-13932
";	-13933
▁kay	-13934
▁compete	-13935
IOUS	-13936
▁weaving	-13937
▁cells	-13938
asha	-13939
▁Tyler	-13940
▁debris	-13941
▁flashing	-13942
▁warped	-13943
▁gag	-13944
actic	-13945
Author	-13946
ormon	-13947
IFF	-13948
▁headband	-13949
▁farther	-13950
▁requirement	-13951
▁accompanied	-13952
▁springs	-13953
▁imperfect	-13954
▁cycles	-13955
▁skull	-13956
▁Help	-13957
▁athletic	-13958
▁obsession	-13959
▁stale	-13960
name	-13961
▁Canadian	-13962
▁hired	-13963
aka	-13964
sur	-13965
▁folders	-13966
▁Mean	-13967
dding	-13968
▁transported	-13969
▁replay	-13970
▁Baker	-13971
laud	-13972
▁referen	-13973
▁comprehend	-13974
mitt	-13975
chell	-13976
▁Witch	-13977
▁beaten	-13978
▁caffeine	-13979
▁stool	-13980
▁rum	-13981
▁bran	-13982
▁Links	-13983
▁PBS	-13984
▁splend	-13985
▁Kitty	-13986
▁Angeles	-13987
bly	-13988
▁Modern	-13989
▁BS	-13990
▁Walk	-13991
▁Yoga	-13992
▁dude	-13993
orney	-13994
▁dict	-13995
▁ALBUM	-13996
▁View	-13997
▁relating	-13998
▁relo	-13999
▁fields	-14000
Ne	-14001
▁proport	-14002
minded	-14003
▁define	-14004
▁historically	-14005
600	-14006
oned	-14007
belief	-14008
▁Kirk	-14009
▁brushed	-14010
▁lite	-14011
▁techno	-14012
▁Terrible	-14013
BE	-14014
Works	-14015
OOOO	-14016
▁Kod	-14017
▁operations	-14018
▁upstairs	-14019
metal	-14020
▁Fran	-14021
▁flew	-14022
▁Sherlock	-14023
nings	-14024
rified	-14025
▁antics	-14026
OIL	-14027
▁apples	-14028
riors	-14029
▁Hig	-14030
▁vocalist	-14031
stood	-14032
▁Justin	-14033
▁Janet	-14034
▁complimentary	-14035
▁FAST	-14036
taste	-14037
▁Shop	-14038
▁pickup	-14039
▁Rab	-14040
atra	-14041
ittings	-14042
Im	-14043
▁scents	-14044
▁Nicholas	-14045
▁appliance	-14046
alie	-14047
▁quietly	-14048
better	-14049
▁surrounded	-14050
imple	-14051
Gu	-14052
▁inclusion	-14053
▁scam	-14054
▁nowadays	-14055
phant	-14056
▁Inside	-14057
▁WORTH	-14058
▁repetition	-14059
▁molded	-14060
-0	-14061
ilarly	-14062
▁hem	-14063
▁rabbit	-14064
▁hyster	-14065
▁guidelines	-14066
zona	-14067
ogne	-14068
hey	-14069
▁referring	-14070
▁Nook	-14071
▁Douglas	-14072
gae	-14073
▁helicopter	-14074
▁retrie	-14075
▁sweats	-14076
yet	-14077
▁vegetarian	-14078
fold	-14079
▁dentist	-14080
ifter	-14081
wan	-14082
▁Dist	-14083
lol	-14084
rin	-14085
essa	-14086
dimensional	-14087
▁aircraft	-14088
▁conversion	-14089
▁Hub	-14090
▁prost	-14091
▁coupled	-14092
▁blending	-14093
appropriate	-14094
Star	-14095
mith	-14096
▁utilize	-14097
MENT	-14098
▁illustration	-14099
▁wakes	-14100
▁properties	-14101
▁Cab	-14102
Again	-14103
▁watts	-14104
▁sear	-14105
count	-14106
bath	-14107
▁Australian	-14108
:1	-14109
di	-14110
▁underrated	-14111
▁Birth	-14112
chand	-14113
▁potato	-14114
▁distorted	-14115
▁sculpt	-14116
▁crust	-14117
▁textured	-14118
ocal	-14119
▁Pad	-14120
▁Whenever	-14121
▁compositions	-14122
▁Team	-14123
enses	-14124
▁CF	-14125
▁fading	-14126
lynn	-14127
.4	-14128
▁repairs	-14129
▁paths	-14130
▁sofa	-14131
▁rubbery	-14132
xx	-14133
CONS	-14134
▁chords	-14135
▁resear	-14136
▁seals	-14137
▁spirits	-14138
▁effortlessly	-14139
allas	-14140
▁Jackie	-14141
▁Square	-14142
▁goggles	-14143
▁chunks	-14144
▁Helen	-14145
▁slam	-14146
gee	-14147
▁haul	-14148
iane	-14149
ighed	-14150
▁glam	-14151
regon	-14152
▁Cand	-14153
▁Colors	-14154
▁sony	-14155
▁shattered	-14156
▁Magn	-14157
▁Marine	-14158
verty	-14159
struct	-14160
▁Pract	-14161
▁wreck	-14162
▁lousy	-14163
▁luckily	-14164
▁rotating	-14165
▁devil	-14166
▁HAPPY	-14167
▁cancel	-14168
▁Minn	-14169
▁Gordon	-14170
▁identified	-14171
▁Broadway	-14172
▁poke	-14173
▁Hem	-14174
▁activate	-14175
MM	-14176
▁THR	-14177
▁tutorial	-14178
ju	-14179
▁Philips	-14180
▁Asia	-14181
▁1/2"	-14182
▁Lim	-14183
bear	-14184
▁Guitar	-14185
▁extender	-14186
▁perpet	-14187
▁drastic	-14188
▁PI	-14189
▁destination	-14190
▁mush	-14191
OOL	-14192
▁Cd	-14193
KES	-14194
▁collapse	-14195
▁haunted	-14196
▁Spain	-14197
▁STORY	-14198
▁CIA	-14199
▁compressor	-14200
▁Danie	-14201
Ms	-14202
▁representative	-14203
▁Korean	-14204
▁cope	-14205
▁Soon	-14206
atmeal	-14207
▁humming	-14208
▁$80	-14209
mel	-14210
▁hangers	-14211
▁esta	-14212
IONS	-14213
umbo	-14214
▁modify	-14215
▁Katie	-14216
▁instances	-14217
▁gods	-14218
aline	-14219
▁tightened	-14220
cool	-14221
▁deaths	-14222
▁Rap	-14223
ULL	-14224
▁debt	-14225
▁stained	-14226
▁trump	-14227
▁BBC	-14228
▁Champ	-14229
▁Union	-14230
▁Mich	-14231
▁blended	-14232
▁Link	-14233
riers	-14234
▁disas	-14235
▁combinations	-14236
BER	-14237
▁Amanda	-14238
▁vinegar	-14239
▁Rebecca	-14240
eled	-14241
▁deduct	-14242
▁52	-14243
▁seve	-14244
El	-14245
resist	-14246
▁BEEN	-14247
kia	-14248
occ	-14249
▁fus	-14250
ergart	-14251
▁avoiding	-14252
▁Aff	-14253
▁OP	-14254
▁overl	-14255
mos	-14256
▁headaches	-14257
▁Wright	-14258
▁Kingdom	-14259
▁towns	-14260
▁autobiography	-14261
RIBLE	-14262
ucker	-14263
▁1990	-14264
▁novelty	-14265
ndrome	-14266
▁poverty	-14267
hind	-14268
▁unfair	-14269
cussion	-14270
▁concentrate	-14271
▁unpredictable	-14272
▁discol	-14273
▁Victoria	-14274
ected	-14275
▁Aqu	-14276
▁implic	-14277
▁Eli	-14278
cion	-14279
▁endured	-14280
▁defeat	-14281
▁manageable	-14282
▁inaccurate	-14283
▁cheated	-14284
▁contrary	-14285
▁MOST	-14286
opard	-14287
pector	-14288
▁counse	-14289
▁reboot	-14290
eder	-14291
hers	-14292
▁adventurous	-14293
▁dramatically	-14294
▁journalist	-14295
▁cowork	-14296
▁ritual	-14297
▁ecc	-14298
▁linked	-14299
▁colon	-14300
▁Merc	-14301
▁testament	-14302
▁nevertheless	-14303
Rob	-14304
▁packet	-14305
ARK	-14306
▁metallic	-14307
pton	-14308
▁partial	-14309
▁Ele	-14310
▁Hunger	-14311
▁failures	-14312
iki	-14313
arest	-14314
▁Gram	-14315
ulates	-14316
▁nuclear	-14317
64	-14318
▁Spend	-14319
▁historian	-14320
▁Smooth	-14321
▁ot	-14322
▁Hug	-14323
▁aggra	-14324
▁awaken	-14325
6)	-14326
▁Harrison	-14327
eren	-14328
▁Sign	-14329
amm	-14330
▁sensual	-14331
itations	-14332
-200	-14333
▁vividly	-14334
ICH	-14335
being	-14336
▁Chase	-14337
entric	-14338
▁Code	-14339
▁compr	-14340
▁Valentine	-14341
▁som	-14342
▁bou	-14343
▁Guard	-14344
aton	-14345
▁respective	-14346
▁Journey	-14347
▁sadd	-14348
▁Together	-14349
mmm	-14350
▁Sant	-14351
urable	-14352
▁advertisement	-14353
EAN	-14354
thod	-14355
GR	-14356
▁satellite	-14357
▁pepp	-14358
atively	-14359
▁ego	-14360
▁Nu	-14361
▁cologne	-14362
▁survivors	-14363
▁Fiction	-14364
athered	-14365
▁Thanksgiving	-14366
ella	-14367
▁inclined	-14368
▁reapp	-14369
▁Adv	-14370
▁varying	-14371
▁fork	-14372
▁CE	-14373
▁developers	-14374
cur	-14375
▁HOWEVER	-14376
▁Ring	-14377
▁2001	-14378
▁elbow	-14379
▁playback	-14380
▁lun	-14381
riters	-14382
arette	-14383
▁trails	-14384
▁9.	-14385
▁jams	-14386
▁operated	-14387
▁bamboo	-14388
▁publishers	-14389
▁Slow	-14390
▁Outstanding	-14391
▁translations	-14392
igo	-14393
▁medieval	-14394
wife	-14395
▁shadows	-14396
assy	-14397
▁diversity	-14398
▁formatting	-14399
▁spoons	-14400
▁coarse	-14401
▁uncertain	-14402
▁dedication	-14403
▁Clearly	-14404
▁deliber	-14405
▁STARS	-14406
▁Drew	-14407
make	-14408
▁retirement	-14409
iolet	-14410
olut	-14411
▁impl	-14412
▁clippers	-14413
▁audiences	-14414
iantly	-14415
▁poles	-14416
▁patri	-14417
osex	-14418
▁10-	-14419
▁cinema	-14420
▁remembering	-14421
walk	-14422
▁Pic	-14423
▁Scotland	-14424
▁oblig	-14425
▁prefers	-14426
▁superficial	-14427
▁sag	-14428
▁annoyance	-14429
olve	-14430
▁SK	-14431
ulas	-14432
▁creams	-14433
mons	-14434
▁Bella	-14435
▁Central	-14436
▁worker	-14437
▁cushions	-14438
65	-14439
▁inqu	-14440
▁enable	-14441
▁COL	-14442
▁disjointed	-14443
▁hearted	-14444
psy	-14445
active	-14446
800	-14447
▁Odd	-14448
▁Palm	-14449
oby	-14450
tering	-14451
▁domin	-14452
▁prominent	-14453
▁segments	-14454
▁Uncle	-14455
▁Stri	-14456
▁Group	-14457
▁hollow	-14458
▁Dust	-14459
iverse	-14460
▁SMALL	-14461
▁versatility	-14462
▁framework	-14463
▁Georgia	-14464
▁musicianship	-14465
▁collects	-14466
▁embarrassed	-14467
▁guessed	-14468
▁mundane	-14469
▁kitt	-14470
▁align	-14471
▁similarities	-14472
rolling	-14473
▁Floyd	-14474
oria	-14475
▁kickstand	-14476
bps	-14477
OSE	-14478
▁Pray	-14479
▁provider	-14480
▁Coc	-14481
▁meetings	-14482
▁BTW	-14483
▁controversial	-14484
Char	-14485
▁monkey	-14486
▁Incredible	-14487
▁stitches	-14488
▁Furthermore	-14489
▁privacy	-14490
seen	-14491
▁performers	-14492
▁curved	-14493
▁HEAR	-14494
▁planes	-14495
▁Molly	-14496
▁Craig	-14497
▁respected	-14498
▁SN	-14499
▁10,	-14500
▁issued	-14501
▁Arizona	-14502
▁venture	-14503
▁Jeep	-14504
ologically	-14505
Spe	-14506
▁fanatic	-14507
▁Mickey	-14508
▁Holl	-14509
▁Victorian	-14510
▁Braun	-14511
▁2:	-14512
▁cleanser	-14513
▁traction	-14514
▁behold	-14515
▁tunnel	-14516
▁Throughout	-14517
onym	-14518
▁lantern	-14519
▁ginger	-14520
▁blonde	-14521
▁armor	-14522
▁clearance	-14523
▁redeeming	-14524
avorite	-14525
▁lush	-14526
▁Self	-14527
▁Moz	-14528
GO	-14529
creat	-14530
▁subpl	-14531
▁zippered	-14532
▁spat	-14533
▁restrict	-14534
DO	-14535
▁disorder	-14536
▁Soviet	-14537
▁charcoal	-14538
▁REM	-14539
▁soaked	-14540
▁ADD	-14541
.........	-14542
▁ling	-14543
▁applaud	-14544
▁distinctive	-14545
heads	-14546
▁END	-14547
icularly	-14548
▁Perform	-14549
urches	-14550
anson	-14551
▁lyric	-14552
▁foul	-14553
▁glorious	-14554
▁attended	-14555
card	-14556
▁Lat	-14557
▁Aid	-14558
ulum	-14559
▁Barbie	-14560
▁thermostat	-14561
▁Helps	-14562
▁pairing	-14563
▁Balance	-14564
ORD	-14565
▁Yellow	-14566
▁pup	-14567
▁tacky	-14568
▁razors	-14569
▁accum	-14570
▁messing	-14571
▁severely	-14572
▁WATCH	-14573
▁Ox	-14574
▁cycling	-14575
asted	-14576
▁adequately	-14577
▁christian	-14578
rese	-14579
▁fighter	-14580
▁Abby	-14581
▁sincere	-14582
built	-14583
▁fantas	-14584
/0	-14585
▁obnoxious	-14586
▁stroke	-14587
▁contacting	-14588
▁astounding	-14589
▁innocence	-14590
▁receives	-14591
▁Tan	-14592
▁Cord	-14593
▁indul	-14594
▁ITEM	-14595
▁canned	-14596
▁measurement	-14597
▁31	-14598
▁poo	-14599
▁subscribe	-14600
▁despair	-14601
sometimes	-14602
liest	-14603
▁delivering	-14604
▁WRONG	-14605
▁morn	-14606
▁Ur	-14607
▁rollers	-14608
agn	-14609
▁interpretations	-14610
▁judg	-14611
▁Liber	-14612
cloth	-14613
▁Lot	-14614
▁Curt	-14615
▁superhero	-14616
▁vice	-14617
▁Place	-14618
▁Thunder	-14619
▁concerts	-14620
▁managing	-14621
▁credible	-14622
▁jail	-14623
▁volunte	-14624
▁cleverly	-14625
▁numb	-14626
▁Kath	-14627
▁insect	-14628
▁Double	-14629
▁cloths	-14630
▁dimensional	-14631
▁Oregon	-14632
ulars	-14633
▁Tour	-14634
▁packets	-14635
▁brittle	-14636
inky	-14637
See	-14638
▁economics	-14639
▁Swed	-14640
Time	-14641
▁accents	-14642
▁Ca	-14643
▁deter	-14644
▁customize	-14645
▁impat	-14646
▁comforting	-14647
▁shooter	-14648
CO	-14649
ansas	-14650
▁Somehow	-14651
▁decept	-14652
▁unacceptable	-14653
ricia	-14654
▁Ener	-14655
▁globe	-14656
Life	-14657
▁robe	-14658
rah	-14659
▁yield	-14660
▁pursue	-14661
song	-14662
▁corny	-14663
▁architecture	-14664
▁12"	-14665
▁lifted	-14666
▁gust	-14667
TY	-14668
▁obser	-14669
▁lubric	-14670
▁ensemble	-14671
▁forcing	-14672
▁underwater	-14673
ourse	-14674
▁rag	-14675
▁Orche	-14676
▁practition	-14677
▁cushioning	-14678
building	-14679
▁bout	-14680
▁theres	-14681
iko	-14682
sto	-14683
IAL	-14684
aque	-14685
hantom	-14686
▁nostalgic	-14687
▁sunny	-14688
ema	-14689
▁aesthet	-14690
▁income	-14691
▁Bri	-14692
▁Academy	-14693
anging	-14694
▁Mostly	-14695
cheap	-14696
▁commands	-14697
▁Trying	-14698
anguage	-14699
lime	-14700
never	-14701
▁fireplace	-14702
▁Lum	-14703
wed	-14704
▁ranch	-14705
▁businesses	-14706
▁shifts	-14707
▁Halo	-14708
▁calves	-14709
worker	-14710
▁Auto	-14711
rently	-14712
▁tackle	-14713
▁brid	-14714
▁pirate	-14715
▁accustom	-14716
▁Castle	-14717
▁eleg	-14718
▁2013.	-14719
▁Celtic	-14720
Take	-14721
▁Seag	-14722
▁trimming	-14723
BR	-14724
uction	-14725
▁variation	-14726
▁SATA	-14727
▁;-)	-14728
▁cinnamon	-14729
▁wrestling	-14730
▁skilled	-14731
▁chamber	-14732
▁bride	-14733
▁8-	-14734
▁Carolina	-14735
iendo	-14736
▁religions	-14737
▁Sens	-14738
7)	-14739
▁Keyboard	-14740
▁ballet	-14741
▁Soci	-14742
▁FO	-14743
▁calorie	-14744
▁sandwich	-14745
▁hazard	-14746
▁crooked	-14747
▁acquired	-14748
▁rugs	-14749
▁heritage	-14750
▁Maria	-14751
▁BD	-14752
yers	-14753
▁POW	-14754
ixed	-14755
▁perse	-14756
▁DEFIN	-14757
▁choppy	-14758
▁vegetable	-14759
isms	-14760
▁chooses	-14761
▁macro	-14762
Your	-14763
jack	-14764
▁effectiveness	-14765
ATER	-14766
▁docking	-14767
▁sharpening	-14768
▁playful	-14769
▁Rh	-14770
unct	-14771
▁12-	-14772
gage	-14773
cor	-14774
▁lany	-14775
mount	-14776
▁bedding	-14777
▁Stones	-14778
oubted	-14779
▁gasket	-14780
▁Francis	-14781
▁workbook	-14782
▁rails	-14783
▁extensively	-14784
drive	-14785
ontz	-14786
▁shining	-14787
xter	-14788
▁Linksys	-14789
iqu	-14790
▁clutter	-14791
pired	-14792
▁Cri	-14793
▁MON	-14794
▁EA	-14795
▁2002	-14796
▁tightening	-14797
▁homeschool	-14798
TING	-14799
▁Ethan	-14800
allica	-14801
▁gathering	-14802
ieties	-14803
keys	-14804
▁Pent	-14805
limited	-14806
▁embroid	-14807
▁Indeed	-14808
▁Wrong	-14809
▁connectivity	-14810
▁troubleshoot	-14811
▁propag	-14812
▁upgrades	-14813
llas	-14814
link	-14815
▁carr	-14816
00'	-14817
▁Mah	-14818
▁DES	-14819
rub	-14820
wash	-14821
▁terrifying	-14822
▁reass	-14823
▁thighs	-14824
▁Lucky	-14825
send	-14826
▁humidifier	-14827
▁Klaus	-14828
▁Different	-14829
etes	-14830
▁sensation	-14831
▁Cos	-14832
▁removes	-14833
▁appropriately	-14834
▁trop	-14835
▁Griffin	-14836
▁Logan	-14837
▁prize	-14838
▁Crazy	-14839
▁seeks	-14840
▁nick	-14841
mostly	-14842
ANCE	-14843
▁GE	-14844
▁aired	-14845
▁divine	-14846
▁representation	-14847
▁dependable	-14848
▁originality	-14849
▁1/8	-14850
▁Penn	-14851
▁pharm	-14852
▁forty	-14853
▁dragging	-14854
▁6,	-14855
▁Pa	-14856
erting	-14857
▁Lane	-14858
▁Lone	-14859
▁fleas	-14860
▁compromise	-14861
▁suprised	-14862
▁Bald	-14863
▁astonishing	-14864
aited	-14865
▁tel	-14866
▁acknowled	-14867
chase	-14868
▁driveway	-14869
▁indie	-14870
▁inconvenience	-14871
▁Often	-14872
atching	-14873
▁Columbia	-14874
▁Campbell	-14875
▁lands	-14876
▁curling	-14877
▁kidnapped	-14878
▁lime	-14879
▁FYI	-14880
gled	-14881
▁mechanic	-14882
▁Making	-14883
▁rods	-14884
▁mentioning	-14885
▁coco	-14886
Donald	-14887
▁pouches	-14888
▁ASUS	-14889
▁cops	-14890
apter	-14891
▁nest	-14892
range	-14893
▁sod	-14894
▁reporter	-14895
▁bases	-14896
answered	-14897
▁racks	-14898
▁discipline	-14899
▁topper	-14900
?),	-14901
▁facil	-14902
▁attitudes	-14903
▁partly	-14904
▁curse	-14905
▁Murphy	-14906
▁markets	-14907
▁gears	-14908
thood	-14909
ILY	-14910
yo	-14911
▁Gall	-14912
▁shutter	-14913
▁downloads	-14914
▁chasing	-14915
▁Mitchell	-14916
bid	-14917
▁overs	-14918
▁Cash	-14919
▁inconvenient	-14920
▁grainy	-14921
umping	-14922
▁uncon	-14923
▁Stories	-14924
▁grams	-14925
▁conceal	-14926
▁HBO	-14927
▁vig	-14928
▁comparisons	-14929
KING	-14930
▁slid	-14931
Bay	-14932
▁alas	-14933
liter	-14934
▁1"	-14935
aspberry	-14936
matics	-14937
▁instinct	-14938
▁taxes	-14939
▁Marcus	-14940
▁breakdown	-14941
▁Aunt	-14942
iator	-14943
ossibly	-14944
▁Control	-14945
▁scratchy	-14946
▁THEIR	-14947
▁College	-14948
▁fib	-14949
▁disconnected	-14950
▁laun	-14951
▁ANYONE	-14952
▁bearing	-14953
▁Genesis	-14954
▁Lay	-14955
oubtedly	-14956
▁Library	-14957
▁Sister	-14958
▁37	-14959
amaha	-14960
▁REVIEW	-14961
▁parking	-14962
▁Memory	-14963
▁highlighted	-14964
▁raises	-14965
ovich	-14966
Everything	-14967
▁peek	-14968
▁armband	-14969
▁Od	-14970
▁HOR	-14971
▁HDD	-14972
▁COMPL	-14973
▁erase	-14974
▁bleed	-14975
▁collabor	-14976
▁Major	-14977
▁contest	-14978
oner	-14979
ATED	-14980
▁disbelief	-14981
▁Bul	-14982
▁priest	-14983
▁$3.	-14984
▁Network	-14985
▁Scripture	-14986
▁Albert	-14987
▁chop	-14988
▁dime	-14989
▁Fresh	-14990
▁craw	-14991
▁coolest	-14992
▁energ	-14993
▁guts	-14994
▁offerings	-14995
another	-14996
▁politicians	-14997
▁cancelled	-14998
▁unbelievably	-14999
▁Watching	-15000
▁Brilliant	-15001
▁bothers	-15002
▁Mia	-15003
▁weaknesses	-15004
▁twee	-15005
▁abst	-15006
anie	-15007
▁anticipate	-15008
▁INST	-15009
▁Lauren	-15010
▁tucked	-15011
▁intentions	-15012
health	-15013
▁nostalgia	-15014
SA	-15015
▁err	-15016
▁horrors	-15017
▁involvement	-15018
▁drift	-15019
Despite	-15020
▁expertise	-15021
▁assure	-15022
IDS	-15023
▁miserable	-15024
▁hav	-15025
BC	-15026
▁Pu	-15027
▁expressions	-15028
▁County	-15029
obble	-15030
▁teller	-15031
▁Oliver	-15032
Pre	-15033
daughters	-15034
▁structured	-15035
▁nutritional	-15036
▁Woods	-15037
etary	-15038
▁forums	-15039
▁prequel	-15040
fill	-15041
▁clicks	-15042
▁Finding	-15043
▁datab	-15044
▁stole	-15045
▁Lam	-15046
▁USED	-15047
▁sweaty	-15048
NDER	-15049
Super	-15050
▁Wes	-15051
pherd	-15052
standard	-15053
▁painfully	-15054
▁adored	-15055
▁Candy	-15056
▁Universal	-15057
Tech	-15058
acey	-15059
▁Nash	-15060
▁legends	-15061
IPP	-15062
uces	-15063
appointing	-15064
▁Syl	-15065
aki	-15066
Happy	-15067
▁700	-15068
▁Rings	-15069
outube	-15070
▁mono	-15071
▁synthes	-15072
▁instructional	-15073
▁agents	-15074
▁hug	-15075
▁rocket	-15076
▁cupcakes	-15077
▁Lab	-15078
▁ende	-15079
▁kingdom	-15080
▁disliked	-15081
▁friction	-15082
shot	-15083
▁Robinson	-15084
▁sheep	-15085
▁foster	-15086
Reg	-15087
▁decorating	-15088
▁facebook	-15089
▁holy	-15090
▁progressed	-15091
▁questioning	-15092
cock	-15093
▁speedy	-15094
War	-15095
clean	-15096
nies	-15097
▁goofy	-15098
Bas	-15099
▁Creative	-15100
▁Darcy	-15101
entious	-15102
▁procedure	-15103
▁guards	-15104
▁aspiring	-15105
▁rude	-15106
▁tights	-15107
▁democr	-15108
▁mornings	-15109
▁authenticity	-15110
▁Move	-15111
▁HEL	-15112
ellig	-15113
▁defiantly	-15114
▁Raven	-15115
▁Travis	-15116
[...]
